{
  "version": "1.0",
  "truncation": null,
  "padding": null,
  "added_tokens": [
    {
      "id": 0,
      "content": "[PAD]",
      "single_word": false,
      "lstrip": false,
      "rstrip": false,
      "normalized": false,
      "special": true
    },
    {
      "id": 1,
      "content": "[UNK]",
      "single_word": false,
      "lstrip": false,
      "rstrip": false,
      "normalized": false,
      "special": true
    },
    {
      "id": 2,
      "content": "<EOS>",
      "single_word": false,
      "lstrip": false,
      "rstrip": false,
      "normalized": false,
      "special": true
    }
  ],
  "normalizer": null,
  "pre_tokenizer": {
    "type": "Whitespace"
  },
  "post_processor": null,
  "decoder": null,
  "model": {
    "type": "Unigram",
    "unk_id": null,
    "vocab": [
      [
        "[PAD]",
        0.0
      ],
      [
        "[UNK]",
        0.0
      ],
      [
        "<EOS>",
        0.0
      ],
      [
        ".",
        -3.1543981095393203
      ],
      [
        "s",
        -3.2925906954459414
      ],
      [
        ",",
        -3.475064824886699
      ],
      [
        "a",
        -3.714395123589549
      ],
      [
        "(",
        -3.723858377459896
      ],
      [
        ":",
        -3.831667487923248
      ],
      [
        "=",
        -3.90985642227108
      ],
      [
        "the",
        -3.9675452057813825
      ],
      [
        ")",
        -4.358358670411434
      ],
      [
        "###",
        -4.500442304292063
      ],
      [
        "in",
        -4.531041591508947
      ],
      [
        "'",
        -4.54069671930977
      ],
      [
        "to",
        -4.652293422781639
      ],
      [
        "that",
        -4.672784614383373
      ],
      [
        "1",
        -4.761345507912251
      ],
      [
        "#",
        -4.842251107997344
      ],
      [
        "is",
        -4.87499478829646
      ],
      [
        "of",
        -4.878705187272612
      ],
      [
        "[",
        -4.893866270622002
      ],
      [
        "\"",
        -4.928140988453684
      ],
      [
        "and",
        -4.928755003044975
      ],
      [
        "-",
        -4.947084104448642
      ],
      [
        ">",
        -5.0993634242448795
      ],
      [
        "for",
        -5.105941413607017
      ],
      [
        "i",
        -5.161637846896928
      ],
      [
        "<",
        -5.168981845409622
      ],
      [
        "2",
        -5.200674262212786
      ],
      [
        "]",
        -5.208378994668742
      ],
      [
        "ing",
        -5.2109106013370035
      ],
      [
        "):",
        -5.216051793822668
      ],
      [
        "E",
        -5.217005436727469
      ],
      [
        "ly",
        -5.2189303360225825
      ],
      [
        "an",
        -5.231429732459041
      ],
      [
        "print",
        -5.238670467155728
      ],
      [
        "0",
        -5.262958780008693
      ],
      [
        "_",
        -5.293261151636004
      ],
      [
        "n",
        -5.320300144232759
      ],
      [
        "OS",
        -5.389620269942281
      ],
      [
        "Write",
        -5.429097110526348
      ],
      [
        "return",
        -5.42973235492695
      ],
      [
        "self",
        -5.431118845547738
      ],
      [
        "if",
        -5.437245037959729
      ],
      [
        "Output",
        -5.4912766458915545
      ],
      [
        "d",
        -5.491695074092224
      ],
      [
        "def",
        -5.50644236681609
      ],
      [
        "w",
        -5.510940598190633
      ],
      [
        "request",
        -5.549465587724804
      ],
      [
        "Instruction",
        -5.559129471166036
      ],
      [
        "response",
        -5.612819763123552
      ],
      [
        "Python",
        -5.644755451239925
      ],
      [
        "y",
        -5.658322529954939
      ],
      [
        "t",
        -5.665999660563569
      ],
      [
        "3",
        -5.675043697437067
      ],
      [
        "task",
        -5.68058684064933
      ],
      [
        "Input",
        -5.688937578644717
      ],
      [
        "complete",
        -5.701363697258726
      ],
      [
        "appropriate",
        -5.715116844165479
      ],
      [
        "describe",
        -5.716191330352881
      ],
      [
        "instruction",
        -5.717410825864086
      ],
      [
        "Belo",
        -5.722946789840808
      ],
      [
        "e",
        -5.79984892078196
      ],
      [
        "+",
        -5.834550950767085
      ],
      [
        "list",
        -5.867224595876012
      ],
      [
        "ed",
        -5.898246125801599
      ],
      [
        "%",
        -5.928912169318542
      ],
      [
        "from",
        -5.93075389469173
      ],
      [
        "import",
        -5.939439548317834
      ],
      [
        "',",
        -5.953834598726754
      ],
      [
        "r",
        -5.971838067856265
      ],
      [
        "5",
        -5.976238788637335
      ],
      [
        "x",
        -6.025637312614158
      ],
      [
        "4",
        -6.03916210841971
      ],
      [
        "on",
        -6.046374207047341
      ],
      [
        "data",
        -6.068647401240115
      ],
      [
        "o",
        -6.098848207412717
      ],
      [
        "(\"",
        -6.122404945035791
      ],
      [
        "()",
        -6.130735840709335
      ],
      [
        "with",
        -6.153896498642618
      ],
      [
        "The",
        -6.157270602556464
      ],
      [
        "$",
        -6.198610557723329
      ],
      [
        "/",
        -6.214644474700366
      ],
      [
        "string",
        -6.264596317529277
      ],
      [
        "p",
        -6.296363915890584
      ],
      [
        "c",
        -6.302029429277729
      ],
      [
        "b",
        -6.329676793194926
      ],
      [
        "program",
        -6.331054352877159
      ],
      [
        "range",
        -6.361717161463565
      ],
      [
        "S",
        -6.373056696720083
      ],
      [
        "\",",
        -6.379518690294233
      ],
      [
        "it",
        -6.396514557702826
      ],
      [
        "arr",
        -6.436703656570003
      ],
      [
        "))",
        -6.451767108275508
      ],
      [
        "('",
        -6.458697819054498
      ],
      [
        "its",
        -6.511508949258243
      ],
      [
        "f",
        -6.5116305933907
      ],
      [
        "A",
        -6.512028028971354
      ],
      [
        "==",
        -6.542991520370045
      ],
      [
        "':",
        -6.559791909708714
      ],
      [
        "len",
        -6.566059990144046
      ],
      [
        "l",
        -6.574581811081156
      ],
      [
        "Create",
        -6.576319230492899
      ],
      [
        "or",
        -6.587523197878999
      ],
      [
        "result",
        -6.5906298346081265
      ],
      [
        "’",
        -6.597885761776128
      ],
      [
        "AI",
        -6.603159028140784
      ],
      [
        "')",
        -6.604860828452592
      ],
      [
        "10",
        -6.6158042026976
      ],
      [
        "be",
        -6.624228386117204
      ],
      [
        "j",
        -6.6258635525652405
      ],
      [
        "given",
        -6.628270486431251
      ],
      [
        "m",
        -6.652694580338606
      ],
      [
        "name",
        -6.667916980348082
      ],
      [
        "number",
        -6.670110076498945
      ],
      [
        "not",
        -6.6859064246390645
      ],
      [
        "array",
        -6.694466309637509
      ],
      [
        "model",
        -6.706279706157762
      ],
      [
        "8",
        -6.707719676226645
      ],
      [
        "num",
        -6.7079883261312965
      ],
      [
        "6",
        -6.720545882322764
      ],
      [
        "stock",
        -6.726732096010467
      ],
      [
        "are",
        -6.7276037669453395
      ],
      [
        "by",
        -6.740468386700259
      ],
      [
        "k",
        -6.770748523202062
      ],
      [
        "7",
        -6.800504444227993
      ],
      [
        "at",
        -6.8014962983926335
      ],
      [
        "\")",
        -6.801933143876738
      ],
      [
        "['",
        -6.830049364833652
      ],
      [
        "input",
        -6.842897046699315
      ],
      [
        "year",
        -6.8449094659824095
      ],
      [
        "h",
        -6.868352150213509
      ],
      [
        "*",
        -6.869356310898024
      ],
      [
        "text",
        -6.869448296215184
      ],
      [
        "has",
        -6.874938759510252
      ],
      [
        "numbers",
        -6.880070147804965
      ],
      [
        "else",
        -6.8822737417278255
      ],
      [
        "value",
        -6.912285142024807
      ],
      [
        "F",
        -6.9156154643951915
      ],
      [
        "key",
        -6.923322818045632
      ],
      [
        "all",
        -6.96378563196132
      ],
      [
        "C",
        -6.971693732049522
      ],
      [
        "function",
        -6.9823355133272855
      ],
      [
        "word",
        -7.024143008402641
      ],
      [
        "class",
        -7.025983889572663
      ],
      [
        "re",
        -7.037155820267044
      ],
      [
        "np",
        -7.0415870645251335
      ],
      [
        "append",
        -7.047373649404928
      ],
      [
        "I",
        -7.048079262067544
      ],
      [
        "9",
        -7.0525143614807195
      ],
      [
        "this",
        -7.054141261669425
      ],
      [
        "get",
        -7.061764901827031
      ],
      [
        "],",
        -7.0762681963323235
      ],
      [
        "company",
        -7.087210851823558
      ],
      [
        "{",
        -7.089890586544474
      ],
      [
        "up",
        -7.1151084168509495
      ],
      [
        "over",
        -7.129251532142872
      ],
      [
        "sum",
        -7.1483600624382735
      ],
      [
        "+=",
        -7.152830165223882
      ],
      [
        "random",
        -7.156457255847588
      ],
      [
        "str",
        -7.1727521998523756
      ],
      [
        "g",
        -7.1842050507372495
      ],
      [
        "code",
        -7.191373495940674
      ],
      [
        "])",
        -7.192467832154268
      ],
      [
        "words",
        -7.207052319409566
      ],
      [
        "you",
        -7.212685802906947
      ],
      [
        "two",
        -7.216021272515379
      ],
      [
        "}",
        -7.221998129933084
      ],
      [
        "P",
        -7.2238465952890465
      ],
      [
        "int",
        -7.239984616050863
      ],
      [
        "']",
        -7.254970008413821
      ],
      [
        "This",
        -7.255832625836623
      ],
      [
        "time",
        -7.264936088329094
      ],
      [
        "price",
        -7.26641168418249
      ],
      [
        "True",
        -7.276196222876868
      ],
      [
        "while",
        -7.292515686634488
      ],
      [
        "B",
        -7.292879082080637
      ],
      [
        "\"\"\"",
        -7.295939526738048
      ],
      [
        "None",
        -7.29716569087938
      ],
      [
        "X",
        -7.297905056422298
      ],
      [
        "M",
        -7.3070000255406935
      ],
      [
        "out",
        -7.31079220023163
      ],
      [
        "which",
        -7.3194523004074235
      ],
      [
        "v",
        -7.333197247705481
      ],
      [
        "more",
        -7.333232664472291
      ],
      [
        "have",
        -7.3385034387117685
      ],
      [
        "end",
        -7.340524615455106
      ],
      [
        "market",
        -7.346905649031402
      ],
      [
        "el",
        -7.347390414693908
      ],
      [
        "using",
        -7.360767386697743
      ],
      [
        "[]",
        -7.362979598654839
      ],
      [
        "will",
        -7.383388569193398
      ],
      [
        "set",
        -7.389785220288255
      ],
      [
        "new",
        -7.397404988156769
      ],
      [
        "can",
        -7.409377500100758
      ],
      [
        "growth",
        -7.414257444860407
      ],
      [
        "item",
        -7.419220204758144
      ],
      [
        "N",
        -7.430525003600193
      ],
      [
        "find",
        -7.434742340333676
      ],
      [
        "billion",
        -7.446409493270195
      ],
      [
        "one",
        -7.456931298220891
      ],
      [
        "er",
        -7.457925640903271
      ],
      [
        "current",
        -7.463733261594017
      ],
      [
        "nums",
        -7.47344541798809
      ],
      [
        "index",
        -7.481543096229476
      ],
      [
        "com",
        -7.4822758472539395
      ],
      [
        "\":",
        -7.49568433602332
      ],
      [
        "le",
        -7.500201203521769
      ],
      [
        "next",
        -7.519122290000698
      ],
      [
        "u",
        -7.51954890209316
      ],
      [
        "?",
        -7.520588440566804
      ],
      [
        "count",
        -7.5251853762621845
      ],
      [
        "T",
        -7.536699330303348
      ],
      [
        "take",
        -7.544050504109897
      ],
      [
        "alse",
        -7.55718835943017
      ],
      [
        "_list",
        -7.559571611099826
      ],
      [
        "python",
        -7.563861116329003
      ],
      [
        ":\")",
        -7.565153100769467
      ],
      [
        "than",
        -7.580193763446863
      ],
      [
        "split",
        -7.5826434829714415
      ],
      [
        "20",
        -7.589090483688865
      ],
      [
        "into",
        -7.601681039337877
      ],
      [
        "url",
        -7.60701446466552
      ],
      [
        "file",
        -7.607048308804344
      ],
      [
        "row",
        -7.623578699596677
      ],
      [
        "element",
        -7.6243237187840665
      ],
      [
        "aid",
        -7.63492695958335
      ],
      [
        "][",
        -7.653898690003138
      ],
      [
        "D",
        -7.659950733172602
      ],
      [
        "age",
        -7.661745255331467
      ],
      [
        "**",
        -7.675299833473699
      ],
      [
        "add",
        -7.682873786853087
      ],
      [
        "was",
        -7.687605416217481
      ],
      [
        "length",
        -7.690426387445412
      ],
      [
        "first",
        -7.699144401620428
      ],
      [
        "start",
        -7.703759088837466
      ],
      [
        "get_",
        -7.714561894483558
      ],
      [
        "df",
        -7.716787126372688
      ],
      [
        "In",
        -7.719690686894487
      ],
      [
        "path",
        -7.723787413089492
      ],
      [
        "\\",
        -7.728658566057297
      ],
      [
        "pd",
        -7.730803737813558
      ],
      [
        "revenue",
        -7.734320298716394
      ],
      [
        "about",
        -7.734398850899961
      ],
      [
        "Generate",
        -7.734835307480914
      ],
      [
        "__",
        -7.7578263641264655
      ],
      [
        "sentence",
        -7.763851623141615
      ],
      [
        "we",
        -7.771643333395693
      ],
      [
        "also",
        -7.778269373738026
      ],
      [
        "user",
        -7.778756803500501
      ],
      [
        "|",
        -7.80110736522487
      ],
      [
        "create",
        -7.809719155015359
      ],
      [
        "earnings",
        -7.8137127261739705
      ],
      [
        "L",
        -7.817956598476257
      ],
      [
        "target",
        -7.819159154822969
      ],
      [
        "max",
        -7.822556471956275
      ],
      [
        "script",
        -7.8263055742978045
      ],
      [
        "size",
        -7.8376986069245955
      ],
      [
        "[\"",
        -7.838430646501195
      ],
      [
        "right",
        -7.844249399984641
      ],
      [
        "items",
        -7.854049020478909
      ],
      [
        "sort",
        -7.854130340625471
      ],
      [
        "values",
        -7.856613281471224
      ],
      [
        "should",
        -7.856689749834231
      ],
      [
        "U",
        -7.861825832681807
      ],
      [
        "“",
        -7.862147755795201
      ],
      [
        "O",
        -7.862348042374848
      ],
      [
        "K",
        -7.8624099760981965
      ],
      [
        "id",
        -7.862605245516461
      ],
      [
        "total",
        -7.866176653619856
      ],
      [
        "node",
        -7.868907262370443
      ],
      [
        "but",
        -7.87872049307079
      ],
      [
        "title",
        -7.88598791233365
      ],
      [
        "Not",
        -7.88966090213405
      ],
      [
        "30",
        -7.892043011783896
      ],
      [
        "matrix",
        -7.893904511197593
      ],
      [
        "line",
        -7.89469723191951
      ],
      [
        ";",
        -7.897746703375709
      ],
      [
        "format",
        -7.899764208123912
      ],
      [
        "12",
        -7.900648106171672
      ],
      [
        "password",
        -7.9012896623383755
      ],
      [
        "__init_",
        -7.901701735012088
      ],
      [
        "each",
        -7.914911919056117
      ],
      [
        "lst",
        -7.9161375388312365
      ],
      [
        "elements",
        -7.925549806133684
      ],
      [
        "&",
        -7.926184691186716
      ],
      [
        "It",
        -7.926221625903505
      ],
      [
        "Nvidia",
        -7.928618968888756
      ],
      [
        "char",
        -7.9308973440362305
      ],
      [
        "business",
        -7.940880520518497
      ],
      [
        "app",
        -7.945755673908427
      ],
      [
        "dictionary",
        -7.949446369093845
      ],
      [
        "{'",
        -7.9504196075500495
      ],
      [
        "test",
        -7.953426239057195
      ],
      [
        "investors",
        -7.957645339191901
      ],
      [
        "15",
        -7.962800064791624
      ],
      [
        "root",
        -7.968903028306831
      ],
      [
        "2026",
        -7.971811789078856
      ],
      [
        "could",
        -7.977582270217731
      ],
      [
        "other",
        -7.978258791649936
      ],
      [
        "generate",
        -7.98088493961914
      ],
      [
        "method",
        -7.981607377514587
      ],
      [
        "term",
        -7.985685894830024
      ],
      [
        "like",
        -7.990106343291892
      ],
      [
        "head",
        -7.9909030070884075
      ],
      [
        "output",
        -7.998557771763433
      ],
      [
        "board",
        -8.002167245556176
      ],
      [
        "share",
        -8.006656143892911
      ],
      [
        "applicab",
        -8.008765509075726
      ],
      [
        "last",
        -8.01365715079455
      ],
      [
        "Y",
        -8.01473980593188
      ],
      [
        "check",
        -8.015285108949069
      ],
      [
        "R",
        -8.025479917030808
      ],
      [
        "H",
        -8.03039276937272
      ],
      [
        "ies",
        -8.03345928491674
      ],
      [
        "high",
        -8.03364432715048
      ],
      [
        "html",
        -8.038187752987074
      ],
      [
        "To",
        -8.038283713411817
      ],
      [
        "search",
        -8.043471627267087
      ],
      [
        "numpy",
        -8.0509660614684
      ],
      [
        "','",
        -8.05664365849388
      ],
      [
        "025",
        -8.056773864193318
      ],
      [
        "al",
        -8.057120928432273
      ],
      [
        "now",
        -8.058264597825772
      ],
      [
        "million",
        -8.05857059675326
      ],
      [
        "example",
        -8.064136963072292
      ],
      [
        "algorithm",
        -8.065812916985681
      ],
      [
        "@",
        -8.066372201100506
      ],
      [
        "type",
        -8.071242534116406
      ],
      [
        "List",
        -8.071497008061755
      ],
      [
        "our",
        -8.072897971974097
      ],
      [
        "uch",
        -8.073838253568614
      ],
      [
        "G",
        -8.076502007135641
      ],
      [
        "even",
        -8.076752724239135
      ],
      [
        "lower",
        -8.078135822015486
      ],
      [
        "py",
        -8.078257849825032
      ],
      [
        "position",
        -8.079082258396367
      ],
      [
        "after",
        -8.082734977607753
      ],
      [
        "\"]",
        -8.082992771580258
      ],
      [
        "quarter",
        -8.086717634326027
      ],
      [
        "{}",
        -8.09105479402296
      ],
      [
        "():",
        -8.094214533065943
      ],
      [
        "://",
        -8.100275213466542
      ],
      [
        "some",
        -8.105609273807385
      ],
      [
        "left",
        -8.110652386086546
      ],
      [
        "strings",
        -8.115892357516582
      ],
      [
        "between",
        -8.118649414875247
      ],
      [
        "Enter",
        -8.122170301956093
      ],
      [
        "</",
        -8.127455581248762
      ],
      [
        "product",
        -8.12919601886092
      ],
      [
        "day",
        -8.135608027097113
      ],
      [
        "z",
        -8.142271413195967
      ],
      [
        "un",
        -8.143214272847285
      ],
      [
        "side",
        -8.143544228379799
      ],
      [
        "(\"\\",
        -8.149456826441957
      ],
      [
        "through",
        -8.160039938246907
      ],
      [
        "json",
        -8.161718482591645
      ],
      [
        "been",
        -8.162127662495715
      ],
      [
        "11",
        -8.164284349555274
      ],
      [
        "100",
        -8.164697646072694
      ],
      [
        "25",
        -8.170225875343931
      ],
      [
        "look",
        -8.174254771457363
      ],
      [
        "If",
        -8.174534737414504
      ],
      [
        "your",
        -8.186248870436577
      ],
      [
        "most",
        -8.18838816612914
      ],
      [
        "ion",
        -8.189013452621428
      ],
      [
        "able",
        -8.189942488260224
      ],
      [
        "join",
        -8.194109444022123
      ],
      [
        "long",
        -8.196622612132078
      ],
      [
        "ce",
        -8.198301983674895
      ],
      [
        "!=",
        -8.200361518670558
      ],
      [
        "following",
        -8.204237872136792
      ],
      [
        "report",
        -8.213218528643969
      ],
      [
        "Hello",
        -8.222903453903427
      ],
      [
        "date",
        -8.223254388922768
      ],
      [
        "how",
        -8.22503886425476
      ],
      [
        "String",
        -8.226308233528588
      ],
      [
        "investment",
        -8.229521756797734
      ],
      [
        "calculate",
        -8.231076369913579
      ],
      [
        "db",
        -8.236237154641366
      ],
      [
        "Dec",
        -8.236581714814815
      ],
      [
        "min",
        -8.239738116169026
      ],
      [
        "Tesla",
        -8.240059811565011
      ],
      [
        "years",
        -8.241505349301107
      ],
      [
        "temp",
        -8.249813004924379
      ],
      [
        "see",
        -8.250393258854574
      ],
      [
        "500",
        -8.251907027791475
      ],
      [
        "he",
        -8.254402621240574
      ],
      [
        "W",
        -8.255045876911632
      ],
      [
        "companie",
        -8.256166756378722
      ],
      [
        "NASDAQ",
        -8.25683872034875
      ],
      [
        "use",
        -8.257877631453457
      ],
      [
        ")):",
        -8.265473429552847
      ],
      [
        "per",
        -8.266049997508288
      ],
      [
        "order",
        -8.270088144773997
      ],
      [
        "open",
        -8.274519311905642
      ],
      [
        "sklearn",
        -8.279431894932307
      ],
      [
        "us",
        -8.282382354769728
      ],
      [
        "res",
        -8.284380883114382
      ],
      [
        "table",
        -8.285581703390324
      ],
      [
        "content",
        -8.287950514266344
      ],
      [
        "dataset",
        -8.291558173466198
      ],
      [
        "Inc",
        -8.292017205283717
      ],
      [
        "cost",
        -8.294335037206313
      ],
      [
        "object",
        -8.294753770760739
      ],
      [
        "run",
        -8.296188597729376
      ],
      [
        "fit",
        -8.296412985036117
      ],
      [
        "Alphabet",
        -8.306797202444386
      ],
      [
        "__name_",
        -8.318121200581063
      ],
      [
        "page",
        -8.321528400461045
      ],
      [
        "what",
        -8.32296758796319
      ],
      [
        "message",
        -8.325469416988684
      ],
      [
        "recent",
        -8.32699109009865
      ],
      [
        "potential",
        -8.335669525656925
      ],
      [
        "any",
        -8.3381660776808
      ],
      [
        "Amazon",
        -8.340809038443414
      ],
      [
        "average",
        -8.341172511829843
      ],
      [
        "())",
        -8.342593041291735
      ],
      [
        "val",
        -8.348387618471573
      ],
      [
        "world",
        -8.35638762017246
      ],
      [
        "make",
        -8.360830887616839
      ],
      [
        "store",
        -8.361910560183603
      ],
      [
        "predict",
        -8.364712411821447
      ],
      [
        "sorted",
        -8.366034710849306
      ],
      [
        "Micro",
        -8.373737220258018
      ],
      [
        "plt",
        -8.37732945393204
      ],
      [
        "th",
        -8.378217374367853
      ],
      [
        "V",
        -8.38009339235748
      ],
      [
        "50",
        -8.380899096198352
      ],
      [
        "Q",
        -8.382588231270859
      ],
      [
        "_id",
        -8.394394807930965
      ],
      [
        "Zacks",
        -8.394494042471985
      ],
      [
        "strong",
        -8.397686492626908
      ],
      [
        "email",
        -8.398757330953288
      ],
      [
        "`",
        -8.404911061945459
      ],
      [
        "ember",
        -8.408771583502709
      ],
      [
        "'])",
        -8.408777886453034
      ],
      [
        "//",
        -8.409841374930666
      ],
      [
        "would",
        -8.409995470395929
      ],
      [
        "top",
        -8.410505672886622
      ],
      [
        "risk",
        -8.416590338535842
      ],
      [
        "characters",
        -8.419042284825121
      ],
      [
        "back",
        -8.425412485963832
      ],
      [
        "continue",
        -8.429981718288762
      ],
      [
        "Stock",
        -8.430394983075335
      ],
      [
        "write",
        -8.439233634236853
      ],
      [
        "power",
        -8.440908082816511
      ],
      [
        "tree",
        -8.444155900833934
      ],
      [
        "three",
        -8.447113451036433
      ],
      [
        "my",
        -8.448329604395962
      ],
      [
        "point",
        -8.4490696889047
      ],
      [
        "based",
        -8.45033762694044
      ],
      [
        "US",
        -8.450342258953388
      ],
      [
        "sub",
        -8.452841008439277
      ],
      [
        "_data",
        -8.460869752780575
      ],
      [
        "where",
        -8.463114279170274
      ],
      [
        "system",
        -8.465325563527177
      ],
      [
        "soup",
        -8.466441866195924
      ],
      [
        "str1",
        -8.466648374073012
      ],
      [
        "sentiment",
        -8.466961984822897
      ],
      [
        "How",
        -8.467351062620903
      ],
      [
        "state",
        -8.469213410631397
      ],
      [
        "sales",
        -8.469286253865857
      ],
      [
        "there",
        -8.477231936138537
      ],
      [
        "these",
        -8.480451560078638
      ],
      [
        "shares",
        -8.484220512827598
      ],
      [
        "largest",
        -8.484533989208014
      ],
      [
        "space",
        -8.48848798530762
      ],
      [
        "increase",
        -8.48890784078699
      ],
      [
        "16",
        -8.489582782635608
      ],
      [
        "cash",
        -8.491477704755027
      ],
      [
        "month",
        -8.492565043516016
      ],
      [
        "pandas",
        -8.494958052623318
      ],
      [
        "dict",
        -8.498329007306461
      ],
      [
        "Design",
        -8.49921869405972
      ],
      [
        "close",
        -8.503087553921189
      ],
      [
        "help",
        -8.506347820211865
      ],
      [
        "mean",
        -8.507441752974843
      ],
      [
        "Beautiful",
        -8.511348955061983
      ],
      [
        "ther",
        -8.512010935222566
      ],
      [
        "Sou",
        -8.513861485346085
      ],
      [
        "_dict",
        -8.514721911958132
      ],
      [
        "max_",
        -8.518115877150283
      ],
      [
        "args",
        -8.52155093731426
      ],
      [
        "_name",
        -8.523857337008554
      ],
      [
        "prime",
        -8.52450379195482
      ],
      [
        "down",
        -8.526022211620106
      ],
      [
        "World",
        -8.526300870144699
      ],
      [
        "Name",
        -8.527195460069045
      ],
      [
        "only",
        -8.530203310377633
      ],
      [
        "web",
        -8.530693082805985
      ],
      [
        "low",
        -8.53146803636958
      ],
      [
        "csv",
        -8.532103458472312
      ],
      [
        "buy",
        -8.532580198484387
      ],
      [
        "ever",
        -8.53259755946548
      ],
      [
        "Data",
        -8.533071700350577
      ],
      [
        "17",
        -8.537514172835088
      ],
      [
        "Print",
        -8.540590021366206
      ],
      [
        "q",
        -8.541911909244105
      ],
      [
        "__main",
        -8.5482166812329
      ],
      [
        "when",
        -8.550419705579134
      ],
      [
        "202",
        -8.55519815335072
      ],
      [
        "https",
        -8.556310683157783
      ],
      [
        "convert",
        -8.556552122049224
      ],
      [
        "character",
        -8.557254071185756
      ],
      [
        "estimate",
        -8.562801715801852
      ],
      [
        "plot",
        -8.567495326412818
      ],
      [
        "14",
        -8.56993725022611
      ],
      [
        "just",
        -8.570178708014211
      ],
      [
        "change",
        -8.573869614202668
      ],
      [
        "query",
        -8.582059925382772
      ],
      [
        "list1",
        -8.583014221002475
      ],
      [
        "well",
        -8.585235723767855
      ],
      [
        ")]",
        -8.589205375589739
      ],
      [
        "past",
        -8.590368737038105
      ],
      [
        "letter",
        -8.590476562473262
      ],
      [
        "loop",
        -8.593175814182114
      ],
      [
        "break",
        -8.593833788238129
      ],
      [
        "mid",
        -8.594052857092159
      ],
      [
        "they",
        -8.597052386944913
      ],
      [
        "um",
        -8.599358395518399
      ],
      [
        "may",
        -8.600032574795039
      ],
      [
        "Open",
        -8.600074163667776
      ],
      [
        "},",
        -8.600854450337406
      ],
      [
        "valuation",
        -8.604750340478857
      ],
      [
        "group",
        -8.60634412789982
      ],
      [
        "Get",
        -8.606728529858337
      ],
      [
        "deal",
        -8.61153017838712
      ],
      [
        "column",
        -8.612138423403412
      ],
      [
        "still",
        -8.612699238326893
      ],
      [
        "demand",
        -8.614479627022206
      ],
      [
        "amount",
        -8.61648350524614
      ],
      [
        "around",
        -8.617191088905702
      ],
      [
        "remove",
        -8.619477175730875
      ],
      [
        "Original",
        -8.62104312448861
      ],
      [
        "score",
        -8.621112375945291
      ],
      [
        "article",
        -8.621608846468481
      ],
      [
        "'],",
        -8.624133504832393
      ],
      [
        "soft",
        -8.624816807588276
      ],
      [
        "”",
        -8.625117624885965
      ],
      [
        "000",
        -8.62580297704815
      ],
      [
        "main",
        -8.626001104579613
      ],
      [
        "float",
        -8.626897497779716
      ],
      [
        "think",
        -8.62691352679493
      ],
      [
        "Node",
        -8.626967175515322
      ],
      [
        "future",
        -8.628859264274993
      ],
      [
        "label",
        -8.630520553078174
      ],
      [
        "same",
        -8.631352304536978
      ],
      [
        "Return",
        -8.633848438639355
      ],
      [
        "ity",
        -8.634168714142767
      ],
      [
        "read",
        -8.635234049154377
      ],
      [
        "try",
        -8.63696814368432
      ],
      [
        "Key",
        -8.638407810472993
      ],
      [
        "post",
        -8.643046768963934
      ],
      [
        "second",
        -8.643259077349501
      ],
      [
        "num1",
        -8.643366256985644
      ],
      [
        "industry",
        -8.647690312343947
      ],
      [
        "datetime",
        -8.648205615227782
      ],
      [
        "32",
        -8.64846031996261
      ],
      [
        "J",
        -8.651611662965898
      ],
      [
        "parser",
        -8.651820074127048
      ],
      [
        "maximum",
        -8.652705548648896
      ],
      [
        "results",
        -8.65711741201121
      ],
      [
        "Google",
        -8.658756803618335
      ],
      [
        "John",
        -8.658756814933252
      ],
      [
        "expected",
        -8.659133891560804
      ],
      [
        "18",
        -8.662190020931469
      ],
      [
        "13",
        -8.662222654068566
      ],
      [
        "best",
        -8.662670192701853
      ],
      [
        "num2",
        -8.662674730581514
      ],
      [
        "lib",
        -8.66392047042638
      ],
      [
        "layer",
        -8.664474072231492
      ],
      [
        "less",
        -8.665173219603776
      ],
      [
        "move",
        -8.665351741607918
      ],
      [
        "here",
        -8.667210283942811
      ],
      [
        "Number",
        -8.668714396879949
      ],
      [
        "display",
        -8.673371046678591
      ],
      [
        "choice",
        -8.67371410696737
      ],
      [
        "rate",
        -8.673733981653626
      ],
      [
        "Apple",
        -8.67520879424464
      ],
      [
        "Wall",
        -8.67687415453311
      ],
      [
        "%)",
        -8.68322409159456
      ],
      [
        "We",
        -8.6860171692508
      ],
      [
        "19",
        -8.687778451869809
      ],
      [
        "---",
        -8.691998301172408
      ],
      [
        "grow",
        -8.69409582295601
      ],
      [
        "Develop",
        -8.694556104252754
      ],
      [
        "sys",
        -8.695081251432518
      ],
      [
        "positive",
        -8.697957380177307
      ],
      [
        "]]",
        -8.699807532234473
      ],
      [
        "higher",
        -8.701186508744625
      ],
      [
        "That",
        -8.704497901466029
      ],
      [
        "integers",
        -8.707543799911708
      ],
      [
        "performance",
        -8.707599749010532
      ],
      [
        "margin",
        -8.71387630875975
      ],
      [
        "X_train",
        -8.71722083551893
      ],
      [
        "Error",
        -8.722426450313952
      ],
      [
        "extract",
        -8.722961128192232
      ],
      [
        "latest",
        -8.726026914755941
      ],
      [
        "stack",
        -8.726878334874069
      ],
      [
        "40",
        -8.729266876869112
      ],
      [
        "col",
        -8.729678188977736
      ],
      [
        "ation",
        -8.730839521495632
      ],
      [
        "reverse",
        -8.731098403861182
      ],
      [
        "argument",
        -8.734394283966704
      ],
      [
        "_train",
        -8.738453091114229
      ],
      [
        "tech",
        -8.738687663856266
      ],
      [
        "Price",
        -8.741081684692478
      ],
      [
        "lambda",
        -8.742050449784308
      ],
      [
        "'''",
        -8.744219954029372
      ],
      [
        "Value",
        -8.747845885443539
      ],
      [
        "You",
        -8.750455699541213
      ],
      [
        "http",
        -8.75048337815558
      ],
      [
        "'))",
        -8.751647834365968
      ],
      [
        "—",
        -8.754218730873523
      ],
      [
        "Market",
        -8.75422106790861
      ],
      [
        "near",
        -8.75831628742535
      ],
      [
        "fund",
        -8.758976620261981
      ],
      [
        "firm",
        -8.759329049703299
      ],
      [
        "sequence",
        -8.760144406035701
      ],
      [
        "base",
        -8.76023360124752
      ],
      [
        "platform",
        -8.76091886763107
      ],
      [
        "under",
        -8.761263707765782
      ],
      [
        "weight",
        -8.763173730530266
      ],
      [
        "database",
        -8.76378454309964
      ],
      [
        "profit",
        -8.765115296576457
      ],
      [
        "For",
        -8.767287928806365
      ],
      [
        "drive",
        -8.770944600453742
      ],
      [
        "kera",
        -8.773779775720316
      ],
      [
        "Fibonacci",
        -8.777868479267406
      ],
      [
        "free",
        -8.777925661042687
      ],
      [
        "color",
        -8.781674114331295
      ],
      [
        "cloud",
        -8.782459343830414
      ],
      [
        "source",
        -8.785018431133622
      ],
      [
        "log",
        -8.78748987758155
      ],
      [
        "On",
        -8.7902702845286
      ],
      [
        "X_test",
        -8.790317555457014
      ],
      [
        "original",
        -8.793068206260777
      ],
      [
        "Range",
        -8.79395203166128
      ],
      [
        "had",
        -8.794279099844855
      ],
      [
        "including",
        -8.79511028420766
      ],
      [
        "hose",
        -8.795430238193733
      ],
      [
        "both",
        -8.798421808336181
      ],
      [
        "rating",
        -8.799361661909991
      ],
      [
        "game",
        -8.800104547138401
      ],
      [
        "whe",
        -8.80198046675953
      ],
      [
        "used",
        -8.80310371287007
      ],
      [
        "00",
        -8.803304930335397
      ],
      [
        "project",
        -8.805575803220496
      ],
      [
        "today",
        -8.806379562587143
      ],
      [
        "except",
        -8.806484500234124
      ],
      [
        "full",
        -8.806541129616974
      ],
      [
        "going",
        -8.809240611461673
      ],
      [
        "center",
        -8.811008696019483
      ],
      [
        "way",
        -8.816145435718244
      ],
      [
        "address",
        -8.81615398068249
      ],
      [
        "Meta",
        -8.817390066114926
      ],
      [
        "part",
        -8.818804187422828
      ],
      [
        "offer",
        -8.818823513530074
      ],
      [
        "come",
        -8.820752120692422
      ],
      [
        "ve",
        -8.822137514790299
      ],
      [
        "And",
        -8.824735199000273
      ],
      [
        "call",
        -8.825700134150733
      ],
      [
        "third",
        -8.82571900417315
      ],
      [
        "features",
        -8.826895002390348
      ],
      [
        "found",
        -8.832854677992428
      ],
      [
        "multiple",
        -8.832919154294585
      ],
      [
        "Check",
        -8.834122472295178
      ],
      [
        "common",
        -8.837494792470544
      ],
      [
        "player",
        -8.837945250689547
      ],
      [
        "etflix",
        -8.84016840280908
      ],
      [
        "case",
        -8.841982779804379
      ],
      [
        "parse",
        -8.842344173278416
      ],
      [
        "new_",
        -8.842679988693902
      ],
      [
        "list2",
        -8.842886688918485
      ],
      [
        "global",
        -8.843299288802463
      ],
      [
        "echnology",
        -8.84333575310989
      ],
      [
        "flow",
        -8.844019520373417
      ],
      [
        "accuracy",
        -8.845014477676017
      ],
      [
        "products",
        -8.846075234049113
      ],
      [
        "\"))",
        -8.848742292248986
      ],
      [
        "remain",
        -8.84925170566152
      ],
      [
        "str2",
        -8.850216680515523
      ],
      [
        "ch",
        -8.85417341235889
      ],
      [
        "cause",
        -8.85564533638714
      ],
      [
        "significant",
        -8.85606103850792
      ],
      [
        "financial",
        -8.858535003088678
      ],
      [
        "www",
        -8.858992854959167
      ],
      [
        "points",
        -8.859128439232984
      ],
      [
        "week",
        -8.862390570277034
      ],
      [
        "them",
        -8.863153810138579
      ],
      [
        "generate_",
        -8.86340911117953
      ],
      [
        "users",
        -8.863659332164103
      ],
      [
        "Program",
        -8.864727297859826
      ],
      [
        "CEO",
        -8.865982134418555
      ],
      [
        "chips",
        -8.86873101688246
      ],
      [
        "replace",
        -8.870421433377926
      ],
      [
        "command",
        -8.87251592519209
      ],
      [
        "customer",
        -8.874652145363296
      ],
      [
        "infrastructure",
        -8.874989713328695
      ],
      [
        "instance",
        -8.875914176991117
      ],
      [
        "_index",
        -8.876835904104318
      ],
      [
        ":\",",
        -8.877877969623583
      ],
      [
        "Trump",
        -8.881018858122587
      ],
      [
        "add_",
        -8.886942890954035
      ],
      [
        "include",
        -8.887007126689635
      ],
      [
        "--",
        -8.88767769912824
      ],
      [
        "columns",
        -8.888497099770017
      ],
      [
        "pop",
        -8.889259477037156
      ],
      [
        "_test",
        -8.891969823758055
      ],
      [
        "tag",
        -8.892026997484054
      ],
      [
        "24",
        -8.892197965349904
      ],
      [
        "arg",
        -8.892719214623323
      ],
      [
        "API",
        -8.899014932535406
      ],
      [
        "Broad",
        -8.900236004712273
      ],
      [
        "DA",
        -8.901927789868488
      ],
      [
        "Chin",
        -8.903411371163891
      ],
      [
        "network",
        -8.904756682199572
      ],
      [
        "comput",
        -8.905150208652707
      ],
      [
        "default",
        -8.905926832589863
      ],
      [
        "trade",
        -8.90672073342346
      ],
      [
        "were",
        -8.906861268601668
      ],
      [
        "server",
        -8.907490486053026
      ],
      [
        "li",
        -8.908234073373912
      ],
      [
        "200",
        -8.909332270602684
      ],
      [
        "Find",
        -8.913042138033802
      ],
      [
        "version",
        -8.914566394080715
      ],
      [
        "build",
        -8.914683663408692
      ],
      [
        "NYSE",
        -8.915723459272943
      ],
      [
        "greater",
        -8.918651321098245
      ],
      [
        "execute",
        -8.919527700809763
      ],
      [
        "already",
        -8.91971737618032
      ],
      [
        "ary",
        -8.920525615199187
      ],
      [
        "record",
        -8.924718479923119
      ],
      [
        "application",
        -8.926242882795567
      ],
      [
        "test_",
        -8.92756710974478
      ],
      [
        "gain",
        -8.928670165032004
      ],
      [
        "Point",
        -8.934221269763743
      ],
      [
        "host",
        -8.93658710542742
      ],
      [
        "mat",
        -8.937096292478444
      ],
      [
        "What",
        -8.93737941195643
      ],
      [
        "[[",
        -8.940671233960778
      ],
      [
        "23",
        -8.942130977193898
      ],
      [
        "URL",
        -8.942603835060307
      ],
      [
        "Flas",
        -8.948061342654114
      ],
      [
        "trading",
        -8.949240839823336
      ],
      [
        "_to_",
        -8.953674604756506
      ],
      [
        "ability",
        -8.955470613669945
      ],
      [
        "Buy",
        -8.956035524030469
      ],
      [
        "\",\"",
        -8.956680766831248
      ],
      [
        "capital",
        -8.957027474430948
      ],
      [
        "pattern",
        -8.95813863825342
      ],
      [
        "nltk",
        -8.958482281219961
      ],
      [
        "!",
        -8.959123350593472
      ],
      [
        "real",
        -8.962183862209681
      ],
      [
        "Re",
        -8.96348906617505
      ],
      [
        "dest",
        -8.965313672405248
      ],
      [
        "Whil",
        -8.967158927316298
      ],
      [
        "across",
        -8.969805421494884
      ],
      [
        "longest",
        -8.97031769789411
      ],
      [
        "compare",
        -8.97104653502844
      ],
      [
        "substring",
        -8.973773340213675
      ],
      [
        "ratio",
        -8.980044716024508
      ],
      [
        "52",
        -8.982310311507572
      ],
      [
        "num_",
        -8.983606274367025
      ],
      [
        "off",
        -8.984523402512306
      ],
      [
        "Function",
        -8.987570660933358
      ],
      [
        "quick",
        -8.988851393028757
      ],
      [
        "60",
        -8.990285325216037
      ],
      [
        "analysis",
        -8.990295400826389
      ],
      [
        "ment",
        -8.991003615947369
      ],
      [
        "services",
        -8.991897311716984
      ],
      [
        "intelligen",
        -8.993207777914732
      ],
      [
        "cap",
        -8.993817640553644
      ],
      [
        "action",
        -8.994140482210303
      ],
      [
        "own",
        -8.99450658820292
      ],
      [
        "series",
        -8.996098562102265
      ],
      [
        "show",
        -8.99727872736179
      ],
      [
        "before",
        -8.999282859709467
      ],
      [
        "integer",
        -9.001627348878852
      ],
      [
        "service",
        -9.00162930118004
      ],
      [
        "operation",
        -9.003874721122505
      ],
      [
        "language",
        -9.004229910360383
      ],
      [
        "reported",
        -9.00494093518131
      ],
      [
        "days",
        -9.007481442943583
      ],
      [
        "large",
        -9.007630858732096
      ],
      [
        "push",
        -9.007652731484317
      ],
      [
        "35",
        -9.007745441766428
      ],
      [
        "treet",
        -9.010014964746981
      ],
      [
        "focus",
        -9.010336148319201
      ],
      [
        "represent",
        -9.010939104969601
      ],
      [
        "keys",
        -9.011379736093087
      ],
      [
        "DataFrame",
        -9.013210503900373
      ],
      [
        "digits",
        -9.014902553393659
      ],
      [
        "expand",
        -9.015326693261947
      ],
      [
        "support",
        -9.01655333806168
      ],
      [
        "error",
        -9.020283621477233
      ],
      [
        "major",
        -9.021699485784637
      ],
      [
        "cursor",
        -9.021960056618887
      ],
      [
        "insert",
        -9.024479476444128
      ],
      [
        "net",
        -9.024648629711383
      ],
      [
        "Intel",
        -9.024817941579812
      ],
      [
        "45",
        -9.025217091740014
      ],
      [
        "fair",
        -9.03026063029878
      ],
      [
        "route",
        -9.03067715101043
      ],
      [
        "28",
        -9.033210790502936
      ],
      [
        "thing",
        -9.034877174445711
      ],
      [
        "parent",
        -9.03502215761589
      ],
      [
        "ref",
        -9.041580792459666
      ],
      [
        "description",
        -9.043943409325685
      ],
      [
        "five",
        -9.04676756310657
      ],
      [
        "de",
        -9.049977429123645
      ],
      [
        "distance",
        -9.051881436734503
      ],
      [
        "area",
        -9.051903580704117
      ],
      [
        "update",
        -9.052026482577674
      ],
      [
        "process",
        -9.05540388385145
      ],
      [
        "invest",
        -9.055917008480245
      ],
      [
        "options",
        -9.058064384453177
      ],
      [
        "math",
        -9.05895334949171
      ],
      [
        "his",
        -9.05993437027044
      ],
      [
        "need",
        -9.06008942357553
      ],
      [
        "my_list",
        -9.063076132007426
      ],
      [
        "dividend",
        -9.063470690147886
      ],
      [
        "find_",
        -9.063687575025883
      ],
      [
        "book",
        -9.063695233044747
      ],
      [
        "conn",
        -9.063724803112251
      ],
      [
        "frequency",
        -9.065435370431105
      ],
      [
        "map",
        -9.0670412547362
      ],
      [
        "22",
        -9.06704935813017
      ],
      [
        "empty",
        -9.067248241824956
      ],
      [
        "card",
        -9.070117492925927
      ],
      [
        "ance",
        -9.070703153906653
      ],
      [
        "according",
        -9.074298653312528
      ],
      [
        "every",
        -9.07597290718289
      ],
      [
        "analyst",
        -9.076918731647293
      ],
      [
        "months",
        -9.07778300138407
      ],
      [
        "----------------",
        -9.07850458850702
      ],
      [
        "ite",
        -9.08044372295917
      ],
      [
        "window",
        -9.080853665540616
      ],
      [
        "interest",
        -9.081327628628687
      ],
      [
        "sector",
        -9.081365714049134
      ],
      [
        "upper",
        -9.081989213923254
      ],
      [
        "_string",
        -9.082191471720641
      ],
      [
        "customers",
        -9.082792388506675
      ],
      [
        "edge",
        -9.085916544722366
      ],
      [
        "26",
        -9.088231617956865
      ],
      [
        "contains",
        -9.088487507952207
      ],
      [
        "since",
        -9.09058502447715
      ],
      [
        "compute",
        -9.091267404890779
      ],
      [
        "]))",
        -9.09217440108631
      ],
      [
        "specific",
        -9.093467297393879
      ],
      [
        "sample",
        -9.096292356881895
      ],
      [
        "Driver",
        -9.100672953967095
      ],
      [
        "co",
        -9.10258458379672
      ],
      [
        "plan",
        -9.10402219298205
      ],
      [
        "negative",
        -9.105269236722185
      ],
      [
        "who",
        -9.107249857784645
      ],
      [
        "Mus",
        -9.110765153146202
      ],
      [
        "labels",
        -9.112245059224826
      ],
      [
        "worth",
        -9.113213494805471
      ],
      [
        "collection",
        -9.113262950115804
      ],
      [
        "current_",
        -9.113296672814744
      ],
      [
        "unique",
        -9.113428700482519
      ],
      [
        "letters",
        -9.113724034269342
      ],
      [
        "consumer",
        -9.11492618756374
      ],
      [
        "match",
        -9.115663446233981
      ],
      [
        "chip",
        -9.116342856648341
      ],
      [
        "Z",
        -9.116502515027719
      ],
      [
        "classifier",
        -9.11654224997229
      ],
      [
        "height",
        -9.118118189093401
      ],
      [
        "link",
        -9.11983409171317
      ],
      [
        "27",
        -9.123081419706757
      ],
      [
        "{\"",
        -9.12327550020456
      ],
      [
        "driver",
        -9.123538832392562
      ],
      [
        "without",
        -9.123619487576898
      ],
      [
        "present",
        -9.125069332337034
      ],
      [
        "say",
        -9.125301706957451
      ],
      [
        "Read",
        -9.125571331985245
      ],
      [
        "rows",
        -9.125779394207239
      ],
      [
        "module",
        -9.127606921189022
      ],
      [
        "binary",
        -9.128650867927453
      ],
      [
        "shape",
        -9.130361723525358
      ],
      [
        "90",
        -9.13145277200833
      ],
      [
        "spending",
        -9.140164309114859
      ],
      [
        "300",
        -9.142020474768064
      ],
      [
        "Set",
        -9.142143585744
      ],
      [
        "raise",
        -9.142464232765226
      ],
      [
        "train_test_",
        -9.145626819865868
      ],
      [
        "api",
        -9.146148396324588
      ],
      [
        "grid",
        -9.146354713672192
      ],
      [
        "early",
        -9.146462702658868
      ],
      [
        "But",
        -9.147853381092446
      ],
      [
        "balance",
        -9.148715056789493
      ],
      [
        "expect",
        -9.149276662280137
      ],
      [
        "times",
        -9.151126020505785
      ],
      [
        "website",
        -9.152289112757334
      ],
      [
        "author",
        -9.154363415146893
      ],
      [
        "seen",
        -9.154544487960504
      ],
      [
        "ent",
        -9.155095124442436
      ],
      [
        "energy",
        -9.155518873447885
      ],
      [
        "username",
        -9.155646939281887
      ],
      [
        "different",
        -9.156168114296486
      ],
      [
        "ive",
        -9.15675738429054
      ],
      [
        "level",
        -9.156946014134398
      ],
      [
        "bank",
        -9.158997498681748
      ],
      [
        "ID",
        -9.159078912075042
      ],
      [
        "information",
        -9.161140353405424
      ],
      [
        "\"\"",
        -9.161975624685354
      ],
      [
        "64",
        -9.16205737857613
      ],
      [
        "news",
        -9.16306631213838
      ],
      [
        "digit",
        -9.166821082390356
      ],
      [
        "narrative",
        -9.168910619354449
      ],
      [
        "classify",
        -9.169980629550315
      ],
      [
        "body",
        -9.17207051713224
      ],
      [
        "pay",
        -9.172127677979756
      ],
      [
        "portfolio",
        -9.172283686200672
      ],
      [
        "coming",
        -9.174888633302084
      ],
      [
        "cut",
        -9.174930020867645
      ],
      [
        "factorial",
        -9.175379451736987
      ],
      [
        "account",
        -9.176106593452404
      ],
      [
        "image",
        -9.17659542088642
      ],
      [
        "artificial",
        -9.179069121973406
      ],
      [
        "short",
        -9.182226038627931
      ],
      [
        "With",
        -9.185231905956144
      ],
      [
        "read_csv",
        -9.185959376622558
      ],
      [
        "view",
        -9.186181465067577
      ],
      [
        "deliver",
        -9.187553589850348
      ],
      [
        "prices",
        -9.189306861224285
      ],
      [
        "_state",
        -9.191116770777349
      ],
      [
        "big",
        -9.192725281486407
      ],
      [
        "me",
        -9.194009652388926
      ],
      [
        "token",
        -9.19577309831201
      ],
      [
        "odd",
        -9.196668186122697
      ],
      [
        "below",
        -9.197092035889504
      ],
      [
        ",”",
        -9.199037048740443
      ],
      [
        "Test",
        -9.200688737784152
      ],
      [
        "does",
        -9.202016908948258
      ],
      [
        "pivot",
        -9.203106552123494
      ],
      [
        "Sort",
        -9.203634435537799
      ],
      [
        "form",
        -9.204914210087646
      ],
      [
        "oftware",
        -9.20521267022924
      ],
      [
        "AM",
        -9.206408835224586
      ],
      [
        "another",
        -9.207263276473373
      ],
      [
        "expression",
        -9.20849382736634
      ],
      [
        "queue",
        -9.208726280344875
      ],
      [
        "scale",
        -9.211259714689367
      ],
      [
        "_words",
        -9.212507010211056
      ],
      [
        "people",
        -9.213704610118612
      ],
      [
        "car",
        -9.218728552253456
      ],
      [
        "set_",
        -9.220971519734036
      ],
      [
        "rough",
        -9.221063469663559
      ],
      [
        "access",
        -9.222715048081412
      ],
      [
        "shift",
        -9.223346526146166
      ],
      [
        "Using",
        -9.223348211866718
      ],
      [
        "yield",
        -9.224334125373396
      ],
      [
        "Dens",
        -9.224989612144961
      ],
      [
        "containing",
        -9.225070629212091
      ],
      [
        "reach",
        -9.225229664034506
      ],
      [
        "hello",
        -9.226116014863717
      ],
      [
        "opportunit",
        -9.22771034528145
      ],
      [
        "iscal",
        -9.229536483472247
      ],
      [
        "suggest",
        -9.2304871647838
      ],
      [
        "previous",
        -9.231489992249152
      ],
      [
        "randin",
        -9.231598218373458
      ],
      [
        "70",
        -9.231664224481891
      ],
      [
        "div",
        -9.234377268300499
      ],
      [
        "min_",
        -9.23539025567549
      ],
      [
        "vowels",
        -9.235409908239243
      ],
      [
        "Calculate",
        -9.235426912822323
      ],
      [
        "dir",
        -9.237215892062137
      ],
      [
        "know",
        -9.23750157855982
      ],
      [
        "believe",
        -9.240493041925896
      ],
      [
        "Count",
        -9.243260349425722
      ],
      [
        "Current",
        -9.244124211515992
      ],
      [
        "session",
        -9.248318969868127
      ],
      [
        "pass",
        -9.248606572920806
      ],
      [
        "No",
        -9.249028926012548
      ],
      [
        "_count",
        -9.250025886036802
      ],
      [
        "filename",
        -9.250843466270846
      ],
      [
        "=['",
        -9.251370635884538
      ],
      [
        "learning",
        -9.253862748283524
      ],
      [
        "_sum",
        -9.254754295020732
      ],
      [
        "vertex",
        -9.256915704791439
      ],
      [
        "appear",
        -9.25699714534122
      ],
      [
        "Add",
        -9.257190694550369
      ],
      [
        "loss",
        -9.25816846466014
      ],
      [
        "define",
        -9.259339377655124
      ],
      [
        "keep",
        -9.260647075963252
      ],
      [
        "Research",
        -9.261035268545175
      ],
      [
        "predictions",
        -9.261172134125065
      ],
      [
        "good",
        -9.262460080469804
      ],
      [
        "device",
        -9.264323790463333
      ],
      [
        "Cap",
        -9.264607961972223
      ],
      [
        "apple",
        -9.264837082264641
      ],
      [
        "connect",
        -9.264861800522446
      ],
      [
        "story",
        -9.264864296835487
      ],
      [
        "trillion",
        -9.266157854437562
      ],
      [
        "Element",
        -9.269672334173816
      ],
      [
        "required",
        -9.27315931286704
      ],
      [
        "tuple",
        -9.273676452484683
      ],
      [
        "75",
        -9.273767127044763
      ],
      [
        "many",
        -9.276440533410074
      ],
      [
        "width",
        -9.279230308606458
      ],
      [
        "capacity",
        -9.279245167852523
      ],
      [
        "fibonacci",
        -9.28000991932712
      ],
      [
        "_size",
        -9.280038982514709
      ],
      [
        "Array",
        -9.281002083441702
      ],
      [
        "Matrix",
        -9.28112418162897
      ],
      [
        "go",
        -9.281258009559593
      ],
      [
        "median",
        -9.282745867589997
      ],
      [
        "benefit",
        -9.283012231353652
      ],
      [
        "city",
        -9.283100576370611
      ],
      [
        "minimum",
        -9.283230848146424
      ],
      [
        "Investor",
        -9.283380028610349
      ],
      [
        "perform",
        -9.28392423538076
      ],
      [
        "training",
        -9.284631997568834
      ],
      [
        "local",
        -9.28516225739101
      ],
      [
        "person",
        -9.285940525285719
      ],
      [
        "filter",
        -9.287021558888389
      ],
      [
        "analysts",
        -9.287149497039552
      ],
      [
        "single",
        -9.288434641112934
      ],
      [
        "80",
        -9.289054078234972
      ],
      [
        "21",
        -9.289814115108193
      ],
      [
        "public",
        -9.292335365405371
      ],
      [
        "old",
        -9.292449047611612
      ],
      [
        "Implement",
        -9.292499909467704
      ],
      [
        "################",
        -9.292624097812547
      ],
      [
        "Given",
        -9.292711107524749
      ],
      [
        "client",
        -9.298862612518999
      ],
      [
        "dog",
        -9.300239053624818
      ],
      [
        "config",
        -9.300553978006441
      ],
      [
        "defense",
        -9.301105095999024
      ],
      [
        "im",
        -9.30142403736927
      ],
      [
        "!\"",
        -9.301755978052187
      ],
      [
        "population",
        -9.304080530962732
      ],
      [
        "research",
        -9.305310682348672
      ],
      [
        "event",
        -9.309628632110162
      ],
      [
        "core",
        -9.314775443678686
      ],
      [
        "new_node",
        -9.318709953995722
      ],
      [
        "Energy",
        -9.3195546916759
      ],
      [
        ".”",
        -9.31995268164091
      ],
      [
        "Day",
        -9.321889122322299
      ],
      [
        "cur",
        -9.3220984585504
      ],
      [
        "machine",
        -9.32348013531339
      ],
      [
        "mak",
        -9.323544632974047
      ],
      [
        "turn",
        -9.324181875084271
      ],
      [
        "gains",
        -9.324485394304617
      ],
      [
        "HTML",
        -9.325448645951722
      ],
      [
        "bar",
        -9.325680970115759
      ],
      [
        "asset",
        -9.327413737623658
      ],
      [
        "Field",
        -9.327421468868007
      ],
      [
        "drop",
        -9.328388248233903
      ],
      [
        "cat",
        -9.331910047972169
      ],
      [
        ");",
        -9.333746872944754
      ],
      [
        "shareholder",
        -9.335397757943849
      ],
      [
        "release",
        -9.335987610913765
      ],
      [
        "far",
        -9.336619138846295
      ],
      [
        "Change",
        -9.337299767135665
      ],
      [
        "Dividend",
        -9.337343076048057
      ],
      [
        "Convert",
        -9.339337730006395
      ],
      [
        "above",
        -9.341337890252007
      ],
      [
        "Investment",
        -9.34137286828538
      ],
      [
        "29",
        -9.34137893766615
      ],
      [
        "NumP",
        -9.344225600403522
      ],
      [
        "activation",
        -9.347361836591986
      ],
      [
        "ele",
        -9.349881017789695
      ],
      [
        "Define",
        -9.35225467563398
      ],
      [
        "want",
        -9.352482988572717
      ],
      [
        "possible",
        -9.35365972000026
      ],
      [
        "air",
        -9.35489944218256
      ],
      [
        "Build",
        -9.355450860276527
      ],
      [
        "org",
        -9.355949630589803
      ],
      [
        "Construct",
        -9.357151579854667
      ],
      [
        "library",
        -9.35927390791311
      ],
      [
        "equal",
        -9.361085527518279
      ],
      [
        "operations",
        -9.361598275586427
      ],
      [
        "period",
        -9.362887449576034
      ],
      [
        "put",
        -9.363007013634236
      ],
      [
        "work",
        -9.363155248457863
      ],
      [
        "_key",
        -9.363816787080818
      ],
      [
        "decision",
        -9.363860990458484
      ],
      [
        "django",
        -9.365655808438948
      ],
      [
        "info",
        -9.366573452824728
      ],
      [
        "allow",
        -9.367555385910894
      ],
      [
        "Or",
        -9.368846220717403
      ],
      [
        "better",
        -9.369901440568533
      ],
      [
        "radius",
        -9.371766244821416
      ],
      [
        "ur",
        -9.372484919477158
      ],
      [
        "location",
        -9.375181719693167
      ],
      [
        "specified",
        -9.376074272099377
      ],
      [
        "Group",
        -9.378083139092071
      ],
      [
        "become",
        -9.37832491690844
      ],
      [
        "obj",
        -9.378658493225531
      ],
      [
        "These",
        -9.380858741848145
      ],
      [
        "increasing",
        -9.383920940945927
      ],
      [
        "idx",
        -9.38487875101735
      ],
      [
        "ting",
        -9.386411932567366
      ],
      [
        "highlight",
        -9.386507005185816
      ],
      [
        "field",
        -9.388327527449373
      ],
      [
        "clf",
        -9.39062390803358
      ],
      [
        "investor",
        -9.391059153553009
      ],
      [
        "EV",
        -9.394276534109562
      ],
      [
        "man",
        -9.394598974663149
      ],
      [
        "annual",
        -9.394793961650016
      ],
      [
        "least",
        -9.394965474945753
      ],
      [
        "provide",
        -9.396101051223116
      ],
      [
        "called",
        -9.39762652011273
      ],
      [
        "NV",
        -9.398229922834554
      ],
      [
        "train",
        -9.403453685647385
      ],
      [
        "forward",
        -9.404344947316355
      ],
      [
        "payment",
        -9.40770414492277
      ],
      [
        "might",
        -9.409687277205942
      ],
      [
        "non",
        -9.410184044691869
      ],
      [
        "copy",
        -9.41051885669011
      ],
      [
        "Code",
        -9.410973798980482
      ],
      [
        "load",
        -9.412933881908394
      ],
      [
        "wide",
        -9.41300373778919
      ],
      [
        "design",
        -9.416889874837628
      ],
      [
        "bin",
        -9.417221191358898
      ],
      [
        "New",
        -9.41761216336699
      ],
      [
        "let",
        -9.418092106172661
      ],
      [
        "implement",
        -9.4181367798599
      ],
      [
        "File",
        -9.418307743434998
      ],
      [
        "find_all",
        -9.418329668226981
      ],
      [
        "reflect",
        -9.418658097216438
      ],
      [
        "development",
        -9.420584981422124
      ],
      [
        "strip",
        -9.421388206298385
      ],
      [
        "License",
        -9.424806358673228
      ],
      [
        "hold",
        -9.426728120748853
      ],
      [
        "palindrome",
        -9.426866328517978
      ],
      [
        "pos",
        -9.430535331229816
      ],
      [
        "contract",
        -9.432881063645649
      ],
      [
        "launch",
        -9.434403708146931
      ],
      [
        "34",
        -9.434799696096674
      ],
      [
        "freq",
        -9.435827331415961
      ],
      [
        "Rank",
        -9.43797108775825
      ],
      [
        "ally",
        -9.438488951928687
      ],
      [
        "vector",
        -9.439191814745083
      ],
      [
        "Narrative",
        -9.442370303681965
      ],
      [
        "txt",
        -9.443851001137181
      ],
      [
        "zip",
        -9.444318142366392
      ],
      [
        "ASML",
        -9.444597297623506
      ],
      [
        "develop",
        -9.445109399680414
      ],
      [
        "Sum",
        -9.44575305751967
      ],
      [
        "doc",
        -9.44830557227467
      ],
      [
        "outlook",
        -9.449199261576489
      ],
      [
        "solution",
        -9.44922132431319
      ],
      [
        "exist",
        -9.450780332955553
      ],
      [
        "He",
        -9.452697735068831
      ],
      [
        "parameters",
        -9.453712488049772
      ],
      [
        "Co",
        -9.45503865388022
      ],
      [
        "track",
        -9.455611625659355
      ],
      [
        "33",
        -9.456338045925591
      ],
      [
        "again",
        -9.456591846523274
      ],
      [
        "Make",
        -9.457085606233338
      ],
      [
        "working",
        -9.458168360368205
      ],
      [
        "axis",
        -9.458773118464368
      ],
      [
        "metrics",
        -9.458829447921502
      ],
      [
        "management",
        -9.458928559308927
      ],
      [
        "graph",
        -9.458940975526273
      ],
      [
        "Panda",
        -9.459676181011243
      ],
      [
        "status",
        -9.4596933073863
      ],
      [
        "Risk",
        -9.460285650796887
      ],
      [
        "attr",
        -9.461607207080526
      ],
      [
        "##",
        -9.462075366008552
      ],
      [
        "clear",
        -9.462079363816109
      ],
      [
        "05",
        -9.46326075242523
      ],
      [
        "child",
        -9.463418861505307
      ],
      [
        "is_",
        -9.463569500031161
      ],
      [
        "flask",
        -9.467035597855727
      ],
      [
        "Now",
        -9.467605150023989
      ],
      [
        "orporation",
        -9.469120578800378
      ],
      [
        "!\")",
        -9.470193991751017
      ],
      [
        "concern",
        -9.471585483423073
      ],
      [
        "^",
        -9.47199506283435
      ],
      [
        "See",
        -9.472524118602589
      ],
      [
        "though",
        -9.472684499541938
      ],
      [
        "certain",
        -9.473592757391444
      ],
      [
        "security",
        -9.47432012148644
      ],
      [
        "1000",
        -9.475047028635235
      ],
      [
        "question",
        -9.47796274317324
      ],
      [
        "})",
        -9.478279001081823
      ],
      [
        "volume",
        -9.478450517960386
      ],
      [
        "port",
        -9.478656162893305
      ],
      [
        "Visa",
        -9.479021669408104
      ],
      [
        "momentum",
        -9.483193622127107
      ],
      [
        "con",
        -9.486176694735207
      ],
      [
        "ord",
        -9.487090757929586
      ],
      [
        "face",
        -9.487534908587607
      ],
      [
        "Initialize",
        -9.488740809267004
      ],
      [
        "feature",
        -9.490211656291478
      ],
      [
        "play",
        -9.492121187475968
      ],
      [
        "Be",
        -9.492213918989057
      ],
      [
        "Classifier",
        -9.492323648197765
      ],
      [
        "Volume",
        -9.492324125861936
      ],
      [
        "Index",
        -9.492522886905592
      ],
      [
        "announce",
        -9.493820448355912
      ],
      [
        "regulator",
        -9.494654527644899
      ],
      [
        "ChatGPT",
        -9.494657003505809
      ],
      [
        "GPU",
        -9.494699410359441
      ],
      [
        "very",
        -9.496741271499587
      ],
      [
        "State",
        -9.497180155694384
      ],
      [
        "basic",
        -9.500484618547826
      ],
      [
        "place",
        -9.503619478864625
      ],
      [
        "Vol",
        -9.505406379563391
      ],
      [
        "advance",
        -9.50582227205733
      ],
      [
        "JSON",
        -9.506391880144314
      ],
      [
        "stead",
        -9.508100384771442
      ],
      [
        "comment",
        -9.510461458014737
      ],
      [
        "giant",
        -9.511130316805296
      ],
      [
        "November",
        -9.511252454533775
      ],
      [
        "rise",
        -9.511370530505507
      ],
      [
        "Av",
        -9.51180552231821
      ],
      [
        "acle",
        -9.511998728455282
      ],
      [
        "direct",
        -9.512958426508778
      ],
      [
        "along",
        -9.514092285592685
      ],
      [
        "document",
        -9.514197941564127
      ],
      [
        "_url",
        -9.514496515495983
      ],
      [
        "ascii_",
        -9.515012622463574
      ],
      [
        "input_list",
        -9.516985313921001
      ],
      [
        "Text",
        -9.517225636559923
      ],
      [
        "mode",
        -9.518026745299913
      ],
      [
        "_path",
        -9.519526764217934
      ],
      [
        "Par",
        -9.521305211742735
      ],
      [
        "government",
        -9.523079045922055
      ],
      [
        "Speaker",
        -9.523097158141201
      ],
      [
        "added",
        -9.523672365084323
      ],
      [
        "pre",
        -9.524829497465781
      ],
      [
        "fetch",
        -9.527876528007837
      ],
      [
        "Split",
        -9.527885748118916
      ],
      [
        "delete",
        -9.528342691062228
      ],
      [
        "65",
        -9.528882691711381
      ],
      [
        "round",
        -9.531944242854474
      ],
      [
        "square",
        -9.531946271599757
      ],
      [
        "consider",
        -9.532072145998274
      ],
      [
        "‌",
        -9.532709038061896
      ],
      [
        "Margin",
        -9.532724841367191
      ],
      [
        "why",
        -9.532911534003553
      ],
      [
        "income",
        -9.53320641211025
      ],
      [
        "really",
        -9.533632290702435
      ],
      [
        "lot",
        -9.534470175836443
      ],
      [
        "Holding",
        -9.5346642605773
      ],
      [
        "half",
        -9.535639402957397
      ],
      [
        "Over",
        -9.535709395450748
      ],
      [
        "grade",
        -9.536513410043753
      ],
      [
        "correct",
        -9.536775468758055
      ],
      [
        "variable",
        -9.536900712772791
      ],
      [
        "impact",
        -9.537569562232186
      ],
      [
        "red",
        -9.538404463609577
      ],
      [
        "Expand",
        -9.538437223702166
      ],
      [
        "src",
        -9.538917913276801
      ],
      [
        "User",
        -9.539718645512398
      ],
      [
        "leader",
        -9.539719218530355
      ],
      [
        "‘",
        -9.54000833694249
      ],
      [
        "48",
        -9.54102167089097
      ],
      [
        "rising",
        -9.541537236598721
      ],
      [
        "likely",
        -9.542388599382301
      ],
      [
        "bit",
        -9.543654043682269
      ],
      [
        "sell",
        -9.54379862278996
      ],
      [
        "attribute",
        -9.544904555632275
      ],
      [
        "Can",
        -9.544953546525626
      ],
      [
        "Use",
        -9.545533990591391
      ],
      [
        "great",
        -9.545721099630413
      ],
      [
        "leading",
        -9.5475649931426
      ],
      [
        "made",
        -9.547686019686985
      ],
      [
        "Counter",
        -9.548143299223106
      ],
      [
        "student",
        -9.54862206743921
      ],
      [
        "severa",
        -9.549350696320952
      ],
      [
        "movie",
        -9.550033803901457
      ],
      [
        "GET",
        -9.55058135062615
      ],
      [
        "_length",
        -9.5519863292254
      ],
      [
        "row_size",
        -9.552955934644494
      ],
      [
        "ll",
        -9.553566127527233
      ],
      [
        "inter",
        -9.553705307078435
      ],
      [
        "42",
        -9.553953403934042
      ],
      [
        "99",
        -9.55492975343215
      ],
      [
        "names",
        -9.555167582561015
      ],
      [
        "links",
        -9.555502949821507
      ],
      [
        "ago",
        -9.556453332546777
      ],
      [
        "follow",
        -9.556749036331482
      ],
      [
        "few",
        -9.557520725008246
      ],
      [
        "expectation",
        -9.560058370307239
      ],
      [
        "test_list",
        -9.561891215300847
      ],
      [
        "Java",
        -9.562232425006387
      ],
      [
        "36",
        -9.562865198653245
      ],
      [
        "alary",
        -9.563456643222345
      ],
      [
        "Share",
        -9.56355220514806
      ],
      [
        "Model",
        -9.565031788967962
      ],
      [
        "tokens",
        -9.566162360292644
      ],
      [
        "compile",
        -9.566348063884572
      ],
      [
        "initial",
        -9.567388834454125
      ],
      [
        "late",
        -9.568767350678156
      ],
      [
        "mark",
        -9.568994953841372
      ],
      [
        "smallest",
        -9.570218993313489
      ],
      [
        "ship",
        -9.5705804515211
      ],
      [
        "quant",
        -9.570773046481392
      ],
      [
        "select",
        -9.571548478186589
      ],
      [
        "connection",
        -9.571630863320005
      ],
      [
        "]])",
        -9.573776683882032
      ],
      [
        "problem",
        -9.574800722310403
      ],
      [
        "lon",
        -9.576248414818544
      ],
      [
        "strateg",
        -9.577187186601492
      ],
      [
        "All",
        -9.577204085202139
      ],
      [
        "Advertisement",
        -9.577326098395073
      ],
      [
        "pressure",
        -9.577332523514535
      ],
      [
        "wk",
        -9.579495307144262
      ],
      [
        "job",
        -9.580031991509319
      ],
      [
        "linked",
        -9.58033079726029
      ],
      [
        "simple",
        -9.582409220339564
      ],
      [
        "_type",
        -9.5829094916411
      ],
      [
        "don",
        -9.583103907404444
      ],
      [
        "var",
        -9.584745863689434
      ],
      [
        "among",
        -9.584970119133114
      ],
      [
        "linear",
        -9.585580494998332
      ],
      [
        "01",
        -9.587094042937657
      ],
      [
        "Gros",
        -9.587471052227638
      ],
      [
        "block",
        -9.588782715565634
      ],
      [
        "–",
        -9.590081348752515
      ],
      [
        "expansion",
        -9.590081379275443
      ],
      [
        "Image",
        -9.590089366154004
      ],
      [
        "_node",
        -9.591131963682443
      ],
      [
        "files",
        -9.591542637938955
      ],
      [
        "related",
        -9.592009490316851
      ],
      [
        "================",
        -9.59239365268579
      ],
      [
        "solutions",
        -9.593868974521381
      ],
      [
        "jsonify",
        -9.595293289689568
      ],
      [
        "check_",
        -9.595576646380573
      ],
      [
        "dur",
        -9.598757276898754
      ],
      [
        "env",
        -9.598840152241188
      ],
      [
        "dollar",
        -9.600404015964013
      ],
      [
        "Of",
        -9.602080474355756
      ],
      [
        "('/",
        -9.603017986049652
      ],
      [
        "factor",
        -9.603817356447511
      ],
      [
        "09",
        -9.603830306631123
      ],
      [
        "driv",
        -9.605234061536756
      ],
      [
        "y_pred",
        -9.605613089286889
      ],
      [
        "xml",
        -9.605845705329491
      ],
      [
        "prediction",
        -9.605903776259272
      ],
      [
        "lowercase",
        -9.606272426170149
      ],
      [
        "RT",
        -9.607183176903987
      ],
      [
        "trend",
        -9.610095964846145
      ],
      [
        "ul",
        -9.610897452099051
      ],
      [
        "cross",
        -9.61289527446704
      ],
      [
        "sign",
        -9.613415024096673
      ],
      [
        "38",
        -9.615271668635161
      ],
      [
        "assert",
        -9.615844271515078
      ],
      [
        "operating",
        -9.616090706241357
      ],
      [
        "permutations",
        -9.61632119321855
      ],
      [
        "four",
        -9.61755522147756
      ],
      [
        "offering",
        -9.620353381646783
      ],
      [
        "programming",
        -9.621169690215211
      ],
      [
        "double",
        -9.622910351304817
      ],
      [
        "std",
        -9.623175499422626
      ],
      [
        "_file",
        -9.623280231842141
      ],
      [
        "Platform",
        -9.624027197957037
      ],
      [
        "Bank",
        -9.624135617541539
      ],
      [
        "est",
        -9.624598973559673
      ],
      [
        "media",
        -9.624989964757688
      ],
      [
        "Tree",
        -9.625989635077204
      ],
      [
        "fields",
        -9.626079294434753
      ],
      [
        "debug",
        -9.62670500971037
      ],
      [
        "money",
        -9.626727577106049
      ],
      [
        "_score",
        -9.626810319674195
      ],
      [
        "home",
        -9.626838971785407
      ],
      [
        "tariff",
        -9.629355908266891
      ],
      [
        "is_prime",
        -9.629713816721589
      ],
      [
        "2020",
        -9.630643471833462
      ],
      [
        "semiconductor",
        -9.632027186890976
      ],
      [
        "stand",
        -9.632522529535866
      ],
      [
        "params",
        -9.633448795973708
      ],
      [
        "occurrence",
        -9.63464218863934
      ],
      [
        ":\"))",
        -9.635230680016065
      ],
      [
        "generation",
        -9.637703508242158
      ],
      [
        "temperature",
        -9.637715031092927
      ],
      [
        "Warne",
        -9.637851688398158
      ],
      [
        "flag",
        -9.639112949136468
      ],
      [
        "structure",
        -9.639248284372881
      ],
      [
        "Iterate",
        -9.640454269225476
      ],
      [
        "JPM",
        -9.641989194636341
      ],
      [
        "valid",
        -9.642548171533193
      ],
      [
        "exit",
        -9.642619715732684
      ],
      [
        "Type",
        -9.642770285055347
      ],
      [
        "supply",
        -9.642799152947426
      ],
      [
        "sqlite",
        -9.64285575580805
      ],
      [
        "tools",
        -9.64344703703646
      ],
      [
        "multi",
        -9.643450050967811
      ],
      [
        "necessar",
        -9.648221864544539
      ],
      [
        "2024",
        -9.648753825075385
      ],
      [
        "lines",
        -9.64977187922801
      ],
      [
        "Do",
        -9.653789327049664
      ],
      [
        "cluster",
        -9.654705584584985
      ],
      [
        "[:,",
        -9.655607775261583
      ],
      [
        "due",
        -9.656609961228892
      ],
      [
        "decimal",
        -9.659144305317419
      ],
      [
        "First",
        -9.659165905711102
      ],
      [
        "difference",
        -9.659168014248584
      ],
      [
        "Load",
        -9.659191276503492
      ],
      [
        "visited",
        -9.659391976561956
      ],
      [
        "util",
        -9.6608147727508
      ],
      [
        "GS",
        -9.660851019933226
      ],
      [
        "acquisition",
        -9.661920697332457
      ],
      [
        "Mean",
        -9.662098586369584
      ],
      [
        "relu",
        -9.663170326774209
      ],
      [
        "prev",
        -9.664609733825738
      ],
      [
        "health",
        -9.664683462045437
      ],
      [
        "General",
        -9.664696358187916
      ],
      [
        "scores",
        -9.66491059482987
      ],
      [
        "partnership",
        -9.667487318677903
      ],
      [
        "chain",
        -9.667982763844865
      ],
      [
        "Time",
        -9.67042275617035
      ],
      [
        "Train",
        -9.673184563235786
      ],
      [
        "digital",
        -9.67379626160923
      ],
      [
        ".\"\"\"",
        -9.675260457133884
      ],
      [
        "course",
        -9.675811874324378
      ],
      [
        "optimize",
        -9.679806681801338
      ],
      [
        "centers",
        -9.68028941499659
      ],
      [
        "total_",
        -9.680579975798254
      ],
      [
        "further",
        -9.681453778266206
      ],
      [
        "download",
        -9.681801204070974
      ],
      [
        "37",
        -9.682355315305156
      ],
      [
        "count_",
        -9.68419801215061
      ],
      [
        "Free",
        -9.687190957340308
      ],
      [
        "objects",
        -9.688382292013893
      ],
      [
        "_text",
        -9.689350550207607
      ],
      [
        "'})",
        -9.689890024968651
      ],
      [
        "sorted_list",
        -9.689894684252124
      ],
      [
        "must",
        -9.689957198131225
      ],
      [
        "variables",
        -9.690786370527958
      ],
      [
        "package",
        -9.691058923145185
      ],
      [
        "unit",
        -9.691251881355978
      ],
      [
        "tax",
        -9.693116311793375
      ],
      [
        "important",
        -9.69354434445468
      ],
      [
        "engine",
        -9.694765133831186
      ],
      [
        "pro",
        -9.696121645929995
      ],
      [
        "func",
        -9.696497807191275
      ],
      [
        "snippet",
        -9.698441588439739
      ],
      [
        "particular",
        -9.698441681927267
      ],
      [
        "vectorizer",
        -9.698563962061296
      ],
      [
        "By",
        -9.699781676314812
      ],
      [
        "save",
        -9.701735879050691
      ],
      [
        "existing",
        -9.703719966660708
      ],
      [
        "EPS",
        -9.704371167961304
      ],
      [
        "Optimize",
        -9.705771215656252
      ],
      [
        "team",
        -9.707434864527023
      ],
      [
        "provided",
        -9.707941863231166
      ],
      [
        "err",
        -9.707989053273813
      ],
      [
        "hash",
        -9.708255137311276
      ],
      [
        "Technology",
        -9.708328978080802
      ],
      [
        "After",
        -9.709954348807933
      ],
      [
        "credit",
        -9.70999380561659
      ],
      [
        "solve",
        -9.71072065072794
      ],
      [
        "oil",
        -9.710774738277408
      ],
      [
        "ZN",
        -9.71102591254818
      ],
      [
        "answer",
        -9.71288487128124
      ],
      [
        "Bros",
        -9.71294544718103
      ],
      [
        "raised",
        -9.714368654961568
      ],
      [
        "quit",
        -9.71508957737959
      ],
      [
        "duplicate",
        -9.716124955489935
      ],
      [
        "02",
        -9.717650354473584
      ],
      [
        "decline",
        -9.71818818761992
      ],
      [
        "actual",
        -9.718632140656581
      ],
      [
        "utf",
        -9.719088403846001
      ],
      [
        "param",
        -9.720022459228272
      ],
      [
        "create_",
        -9.72072827448065
      ],
      [
        "_str",
        -9.721203830142123
      ],
      [
        "encode",
        -9.721441198249387
      ],
      [
        "detect",
        -9.722021613605591
      ],
      [
        "improve",
        -9.722818619555845
      ],
      [
        "msg",
        -9.725140277158477
      ],
      [
        "factors",
        -9.725684298942495
      ],
      [
        "reason",
        -9.726141251692752
      ],
      [
        "handle",
        -9.726437458886851
      ],
      [
        "NB",
        -9.72650755280982
      ],
      [
        "Search",
        -9.727049800023948
      ],
      [
        "2012",
        -9.72709015994785
      ],
      [
        "punctuation",
        -9.727611237512924
      ],
      [
        "_info",
        -9.730197616805858
      ],
      [
        "GE",
        -9.731840943178195
      ],
      [
        "string2",
        -9.732132973385061
      ],
      [
        "video",
        -9.733380609490295
      ],
      [
        "tuples",
        -9.734758312650582
      ],
      [
        "enumerate",
        -9.736347026293107
      ],
      [
        "forecasts",
        -9.737695288183438
      ],
      [
        "option",
        -9.738291740747963
      ],
      [
        "box",
        -9.73831281964079
      ],
      [
        "POST",
        -9.739484849576016
      ],
      [
        "organ",
        -9.739615448655627
      ],
      [
        "led",
        -9.741353253579634
      ],
      [
        "toward",
        -9.74167924353646
      ],
      [
        "enter",
        -9.741838660845634
      ],
      [
        "phone",
        -9.742071058652385
      ],
      [
        "my_",
        -9.743035529860038
      ],
      [
        "directory",
        -9.743132501528427
      ],
      [
        "rose",
        -9.743902346296238
      ],
      [
        "limit",
        -9.744587380671785
      ],
      [
        "undervalue",
        -9.745172205084312
      ],
      [
        "environment",
        -9.745337632391458
      ],
      [
        "kwarg",
        -9.745732088638752
      ],
      [
        "control",
        -9.746880472170261
      ],
      [
        "combinations",
        -9.747554213794299
      ],
      [
        "resource",
        -9.74854256722336
      ],
      [
        "list_of_",
        -9.74876363719564
      ],
      [
        "_value",
        -9.748891065403352
      ],
      [
        "fox",
        -9.750496385017643
      ],
      [
        "Master",
        -9.751434290695128
      ],
      [
        "dataframe",
        -9.75181587676424
      ],
      [
        "holding",
        -9.752877341883194
      ],
      [
        "ers",
        -9.753313484328183
      ],
      [
        "Import",
        -9.75432058881063
      ],
      [
        "Simpl",
        -9.756059964217595
      ],
      [
        "decade",
        -9.756962164431226
      ],
      [
        "ber",
        -9.758050988752082
      ],
      [
        "review",
        -9.758079476189975
      ],
      [
        "span",
        -9.759031059992207
      ],
      [
        "contact",
        -9.760409975962204
      ],
      [
        "Length",
        -9.763457083233188
      ],
      [
        "speed",
        -9.76346702013653
      ],
      [
        "context",
        -9.764421018846189
      ],
      [
        "cell",
        -9.764612891139338
      ],
      [
        "guid",
        -9.764631583284633
      ],
      [
        "detail",
        -9.766402322810407
      ],
      [
        "31",
        -9.766635741483146
      ],
      [
        "demonstrate",
        -9.766984766837904
      ],
      [
        "determine",
        -9.768522278285493
      ],
      [
        "pipeline",
        -9.76966271271383
      ],
      [
        "Base",
        -9.772013485838905
      ],
      [
        "subject",
        -9.772659556968271
      ],
      [
        "discount",
        -9.773574129481606
      ],
      [
        "([[",
        -9.775838884451296
      ],
      [
        "Date",
        -9.777041508940439
      ],
      [
        "​",
        -9.778841951857249
      ],
      [
        "commercial",
        -9.779192857965278
      ],
      [
        ")))",
        -9.781519541313065
      ],
      [
        "memory",
        -9.781961077760258
      ],
      [
        "banana",
        -9.781970523092685
      ],
      [
        "segment",
        -9.782592886145569
      ],
      [
        "RE",
        -9.78297525766429
      ],
      [
        "commit",
        -9.783405425488473
      ],
      [
        "counter",
        -9.783801838870847
      ],
      [
        "GOOGL",
        -9.785290982533594
      ],
      [
        "her",
        -9.786130172578485
      ],
      [
        "employees",
        -9.786346919796815
      ],
      [
        "\"\\",
        -9.786982059196148
      ],
      [
        "string1",
        -9.78739264632155
      ],
      [
        "weights",
        -9.787979749416763
      ],
      [
        "gender",
        -9.788195134776263
      ],
      [
        "success",
        -9.790746421230924
      ],
      [
        "ahead",
        -9.79086935083675
      ],
      [
        "_dir",
        -9.791070007297819
      ],
      [
        "true",
        -9.791719745874712
      ],
      [
        "[::",
        -9.79203610208371
      ],
      [
        "available",
        -9.794467258226273
      ],
      [
        "talk",
        -9.794491868090208
      ],
      [
        "execution",
        -9.794510524413585
      ],
      [
        "terms",
        -9.794537093925857
      ],
      [
        "stream",
        -9.794770107101188
      ],
      [
        "Out",
        -9.79512908853572
      ],
      [
        "transform",
        -9.79519049750327
      ],
      [
        "processing",
        -9.795227993812457
      ],
      [
        "max_val",
        -9.795581463191809
      ],
      [
        "sale",
        -9.796681558521684
      ],
      [
        "earlie",
        -9.79764290670795
      ],
      [
        "_number",
        -9.798417920579501
      ],
      [
        "curr",
        -9.798419046296559
      ],
      [
        "reshape",
        -9.798737490478397
      ],
      [
        "testing",
        -9.799925592093533
      ],
      [
        "Sequential",
        -9.80078638841668
      ],
      [
        "volatil",
        -9.800801745471874
      ],
      [
        "Edit",
        -9.801679358956147
      ],
      [
        "competition",
        -9.803987251264505
      ],
      [
        "sum_",
        -9.804093009440408
      ],
      [
        "small",
        -9.804144239512276
      ],
      [
        "purchase",
        -9.805634986565941
      ],
      [
        "built",
        -9.807145708817266
      ],
      [
        "equit",
        -9.80735498492168
      ],
      [
        "published",
        -9.80779414978586
      ],
      [
        "diff",
        -9.808612457956162
      ],
      [
        "Analyst",
        -9.809218061715237
      ],
      [
        "usr",
        -9.810304790580613
      ],
      [
        "libraries",
        -9.810383189711217
      ],
      [
        "55",
        -9.81088955133194
      ],
      [
        "rates",
        -9.81113958688395
      ],
      [
        "Size",
        -9.811693863026179
      ],
      [
        "47",
        -9.81170924669697
      ],
      [
        "counts",
        -9.8118775999597
      ],
      [
        "pair",
        -9.812280649507219
      ],
      [
        "Cloud",
        -9.813577459960616
      ],
      [
        "49",
        -9.814488448051215
      ],
      [
        "auto",
        -9.815429058224833
      ],
      [
        "_selection",
        -9.815473768343475
      ],
      [
        "final",
        -9.816685349663942
      ],
      [
        "massive",
        -9.816796550682117
      ],
      [
        "came",
        -9.817153511915905
      ],
      [
        "articles",
        -9.817335657885847
      ],
      [
        "user_",
        -9.817903838908503
      ],
      [
        "role",
        -9.818017131560289
      ],
      [
        "There",
        -9.821405589301317
      ],
      [
        "deep",
        -9.821845033299635
      ],
      [
        "elem",
        -9.821847669574481
      ],
      [
        "step",
        -9.822150458883797
      ],
      [
        "85",
        -9.822769640116526
      ],
      [
        "install",
        -9.823568316638429
      ],
      [
        "MD",
        -9.82456824131162
      ],
      [
        "wise",
        -9.82494037680026
      ],
      [
        "forecast",
        -9.82500467075187
      ],
      [
        "43",
        -9.826461139697848
      ],
      [
        "transaction",
        -9.826637932694677
      ],
      [
        "86",
        -9.82695908130623
      ],
      [
        "debt",
        -9.827242306345862
      ],
      [
        "agent",
        -9.82756725427755
      ],
      [
        "fact",
        -9.82835774328947
      ],
      [
        "INT",
        -9.829575648414476
      ],
      [
        "Aero",
        -9.829763207360948
      ],
      [
        "BP",
        -9.830461082173652
      ],
      [
        "monitor",
        -9.832995406390598
      ],
      [
        "lead",
        -9.834902049857904
      ],
      [
        "input_string",
        -9.835004943384739
      ],
      [
        "39",
        -9.835850866718118
      ],
      [
        "…",
        -9.836273952179809
      ],
      [
        "children",
        -9.83628020007662
      ],
      [
        "signal",
        -9.836696676394993
      ],
      [
        "zer",
        -9.837033043325416
      ],
      [
        "American",
        -9.83719848327319
      ],
      [
        "merge",
        -9.840154828667313
      ],
      [
        "One",
        -9.841869518991132
      ],
      [
        "brown",
        -9.842954613366803
      ],
      [
        "img",
        -9.843042475338738
      ],
      [
        "cv",
        -9.844921560132395
      ],
      [
        "initializ",
        -9.845281144904147
      ],
      [
        "Result",
        -9.845662875469978
      ],
      [
        "custom",
        -9.846050244269664
      ],
      [
        "nsus",
        -9.847114602395028
      ],
      [
        "category",
        -9.849497273537606
      ],
      [
        "electric",
        -9.849500350606027
      ],
      [
        "ier",
        -9.850832711728614
      ],
      [
        "_num",
        -9.85123655233044
      ],
      [
        "feature_",
        -9.85153616062085
      ],
      [
        "spam",
        -9.853232241369287
      ],
      [
        "profile",
        -9.853616517010941
      ],
      [
        "word_count",
        -9.854482312466294
      ],
      [
        "drug",
        -9.856130268182387
      ],
      [
        "Age",
        -9.858005613081467
      ],
      [
        "solid",
        -9.858685788365829
      ],
      [
        "Lab",
        -9.859424266192143
      ],
      [
        "sets",
        -9.859626847033784
      ],
      [
        "highest",
        -9.860064886378336
      ],
      [
        "extend",
        -9.860891258084234
      ],
      [
        "books",
        -9.861172198923764
      ],
      [
        "anagement",
        -9.861630252088258
      ],
      [
        "within",
        -9.86190439053135
      ],
      [
        "Example",
        -9.862897875006542
      ],
      [
        "'}",
        -9.863009660047112
      ],
      [
        "Report",
        -9.863091258742267
      ],
      [
        "duplicates",
        -9.864615420424279
      ],
      [
        "SLA",
        -9.865036728363247
      ],
      [
        "primes",
        -9.865214622175053
      ],
      [
        "44",
        -9.86532110777376
      ],
      [
        "six",
        -9.865419219327112
      ],
      [
        "frame",
        -9.865884397947513
      ],
      [
        "aim",
        -9.866717910472609
      ],
      [
        "maintain",
        -9.866921566721011
      ],
      [
        "students",
        -9.86696363281901
      ],
      [
        "generat",
        -9.869427646978146
      ],
      [
        "commerce",
        -9.869666044808497
      ],
      [
        "Yield",
        -9.869666103240228
      ],
      [
        "vertice",
        -9.869666162603934
      ],
      [
        "initialize",
        -9.869865553521038
      ],
      [
        "Un",
        -9.869947904390788
      ],
      [
        "bring",
        -9.870147945754029
      ],
      [
        "safe",
        -9.87019579736015
      ],
      [
        "curr_",
        -9.871430295271846
      ],
      [
        "draw",
        -9.872074029622475
      ],
      [
        "LinearRegression",
        -9.873079259367035
      ],
      [
        "56",
        -9.875298737154685
      ],
      [
        "Company",
        -9.877854509331708
      ],
      [
        "Fair",
        -9.878673385096906
      ],
      [
        "Estimate",
        -9.879904992935101
      ],
      [
        "agreement",
        -9.879947165114913
      ],
      [
        "starting",
        -9.880134332196352
      ],
      [
        "records",
        -9.880510314620981
      ],
      [
        "fundamental",
        -9.883341444149792
      ],
      [
        "challenge",
        -9.883393911739391
      ],
      [
        "_table",
        -9.88371900660488
      ],
      [
        "Doe",
        -9.8837531666546
      ],
      [
        "maker",
        -9.885073068584777
      ],
      [
        "creat",
        -9.885706322797025
      ],
      [
        "pick",
        -9.885887066529662
      ],
      [
        "chatbot",
        -9.886274288059745
      ],
      [
        "corresponding",
        -9.886789704236492
      ],
      [
        "ker",
        -9.887243069302977
      ],
      [
        "conse",
        -9.888619992074785
      ],
      [
        "act",
        -9.889986483831676
      ],
      [
        "Even",
        -9.890392646141905
      ],
      [
        "tool",
        -9.891872864428551
      ],
      [
        "ter",
        -9.89195412998992
      ],
      [
        "_code",
        -9.892401184961894
      ],
      [
        "fast",
        -9.892788362595526
      ],
      [
        "United",
        -9.894710383565991
      ],
      [
        "ather",
        -9.897261290416214
      ],
      [
        "new_list",
        -9.897815708259742
      ],
      [
        "statement",
        -9.898319639246436
      ],
      [
        "thread",
        -9.899498540215188
      ],
      [
        "Wh",
        -9.900017902065487
      ],
      [
        "met",
        -9.900070667481183
      ],
      [
        "relative",
        -9.900712845111254
      ],
      [
        "online",
        -9.900923731746694
      ],
      [
        "moves",
        -9.900944729140566
      ],
      [
        "sqrt",
        -9.901246579596577
      ],
      [
        "marks",
        -9.901640498122703
      ],
      [
        "operator",
        -9.901949065448349
      ],
      [
        "heap",
        -9.90241075521309
      ],
      [
        "tweet",
        -9.902833009676563
      ],
      [
        "units",
        -9.902946649326468
      ],
      [
        "400",
        -9.90527880336457
      ],
      [
        "chars",
        -9.905603015941844
      ],
      [
        "region",
        -9.907244050573954
      ],
      [
        "efficient",
        -9.907534720632922
      ],
      [
        "individual",
        -9.90773284754074
      ],
      [
        "Consens",
        -9.907733985179359
      ],
      [
        "building",
        -9.908409581650854
      ],
      [
        "experience",
        -9.908563646757187
      ],
      [
        "hind",
        -9.908669860181279
      ],
      [
        "makes",
        -9.909889571872366
      ],
      [
        "watch",
        -9.91099811352174
      ],
      [
        "Next",
        -9.911564386998016
      ],
      [
        "broade",
        -9.911968450897458
      ],
      [
        "faster",
        -9.912158254661172
      ],
      [
        "hit",
        -9.912165336579175
      ],
      [
        "abs",
        -9.913154108941619
      ],
      [
        "ters",
        -9.914712923440456
      ],
      [
        "strategic",
        -9.91496959049342
      ],
      [
        "entry",
        -9.915173103113549
      ],
      [
        "desp",
        -9.91630493434487
      ],
      [
        "uring",
        -9.91656706406988
      ],
      [
        "46",
        -9.916625211759829
      ],
      [
        "max_num",
        -9.918250048516011
      ],
      [
        "figure",
        -9.91829645388961
      ],
      [
        "employee",
        -9.920474421541263
      ],
      [
        "uppercase",
        -9.922036387195067
      ],
      [
        "craft",
        -9.922109701922889
      ],
      [
        "autonomous",
        -9.922681588364533
      ],
      [
        "indicate",
        -9.923632206512316
      ],
      [
        "anagrams",
        -9.924190046364547
      ],
      [
        "Wed",
        -9.924386659958122
      ],
      [
        "78",
        -9.92486350604747
      ],
      [
        "cycle",
        -9.925527065082322
      ],
      [
        "multiply",
        -9.926211481339307
      ],
      [
        "divisible",
        -9.92828481497401
      ],
      [
        "AS",
        -9.9291818748247
      ],
      [
        "IN",
        -9.929589600165242
      ],
      [
        "arrow",
        -9.930993003562573
      ],
      [
        "biggest",
        -9.932734232031745
      ],
      [
        "Strong",
        -9.93274798136559
      ],
      [
        "66",
        -9.932911295276249
      ],
      [
        "general",
        -9.933685983400999
      ],
      [
        "user_input",
        -9.934126933623324
      ],
      [
        "understand",
        -9.934498154321762
      ],
      [
        "boost",
        -9.936363805403179
      ],
      [
        "ate",
        -9.938277048966208
      ],
      [
        "enable",
        -9.938347224264339
      ],
      [
        "green",
        -9.938969961361977
      ],
      [
        "evaluate",
        -9.939000696382202
      ],
      [
        "Financial",
        -9.939993674878949
      ],
      [
        "reduce",
        -9.940332533310801
      ],
      [
        "nodes",
        -9.94040492674853
      ],
      [
        "AVG",
        -9.94054835010568
      ],
      [
        "classe",
        -9.94204899861177
      ],
      [
        "Vectorize",
        -9.94357148172831
      ],
      [
        "System",
        -9.943645905042526
      ],
      [
        "OR",
        -9.944424172501993
      ],
      [
        "accept",
        -9.944512866443272
      ],
      [
        "ahoo",
        -9.945519712029482
      ],
      [
        "59",
        -9.94611321463718
      ],
      [
        "extreme",
        -9.947306424054577
      ],
      [
        "policy",
        -9.94731422323622
      ],
      [
        "seq",
        -9.947331058158282
      ],
      [
        "manufactur",
        -9.94821930264969
      ],
      [
        "According",
        -9.950982784338567
      ],
      [
        "until",
        -9.950982954402296
      ],
      [
        "property",
        -9.950986014113866
      ],
      [
        "identify",
        -9.95098658920093
      ],
      [
        "doesn",
        -9.95396963053151
      ],
      [
        "enterprise",
        -9.95467299037195
      ],
      [
        "Exception",
        -9.954680890164873
      ],
      [
        "Pleas",
        -9.954931701148496
      ],
      [
        "chr",
        -9.955109945678789
      ],
      [
        "Year",
        -9.956388531570273
      ],
      [
        "optimizer",
        -9.958090915133058
      ],
      [
        "bubble",
        -9.958353979122318
      ],
      [
        "My",
        -9.959223753156063
      ],
      [
        "weather",
        -9.96215835473912
      ],
      [
        "give",
        -9.962635309616577
      ],
      [
        "dist",
        -9.96380576204181
      ],
      [
        "ten",
        -9.964672038654335
      ],
      [
        "scraper",
        -9.964701342421609
      ],
      [
        "generated",
        -9.96525479644757
      ],
      [
        "_time",
        -9.965265686861866
      ],
      [
        "done",
        -9.965606561530986
      ],
      [
        "separate",
        -9.966142218759014
      ],
      [
        "winner",
        -9.967881676694912
      ],
      [
        "Item",
        -9.969560706692832
      ],
      [
        "robotaxi",
        -9.970016966074645
      ],
      [
        "max_length",
        -9.97216684229005
      ],
      [
        "longer",
        -9.972999096460489
      ],
      [
        "domain",
        -9.97313039592959
      ],
      [
        "_array",
        -9.975187523654952
      ],
      [
        "beat",
        -9.97551122950101
      ],
      [
        "depth",
        -9.976537636392226
      ],
      [
        "implie",
        -9.977114219269806
      ],
      [
        "Label",
        -9.977837547295778
      ],
      [
        "_of_",
        -9.978965868377225
      ],
      [
        "projects",
        -9.980032834644527
      ],
      [
        "gas",
        -9.98082104507306
      ],
      [
        "Finance",
        -9.980918520670969
      ],
      [
        "Al",
        -9.981464435973422
      ],
      [
        "often",
        -9.981555092675546
      ],
      [
        "crypto",
        -9.981764922851468
      ],
      [
        "Best",
        -9.982038698554735
      ],
      [
        "57",
        -9.983834137293695
      ],
      [
        "percent",
        -9.984327390280876
      ],
      [
        "active",
        -9.984756634288638
      ],
      [
        "PE",
        -9.986337952056457
      ],
      [
        "_rate",
        -9.987285784762483
      ],
      [
        "America",
        -9.987435118243347
      ],
      [
        "MA",
        -9.988182561778043
      ],
      [
        "moving",
        -9.990149846932944
      ],
      [
        "_matrix",
        -9.991016575436147
      ],
      [
        "frequent",
        -9.993315244478081
      ],
      [
        "De",
        -9.993751972074534
      ],
      [
        "once",
        -9.994484129369365
      ],
      [
        "ETF",
        -9.995017869140394
      ],
      [
        "ize",
        -9.995186928137471
      ],
      [
        "ascending",
        -9.996189479111198
      ],
      [
        "middle",
        -9.996197549898465
      ],
      [
        "brand",
        -9.99693936796099
      ],
      [
        "note",
        -9.998784778769831
      ],
      [
        "AWS",
        -10.000063677805048
      ],
      [
        "tensorflow",
        -10.000078589839484
      ],
      [
        "contain",
        -10.000357245127692
      ],
      [
        "auth",
        -10.002146752053484
      ],
      [
        "iloc",
        -10.003839177203563
      ],
      [
        "produce",
        -10.00415866417482
      ],
      [
        "list_",
        -10.004289905015748
      ],
      [
        "itertool",
        -10.005698038258021
      ],
      [
        "issue",
        -10.007206847301738
      ],
      [
        "esday",
        -10.008550075972323
      ],
      [
        "sort_",
        -10.008594509980378
      ],
      [
        "remove_",
        -10.008949075499238
      ],
      [
        "closed",
        -10.008966733916193
      ],
      [
        "provides",
        -10.010177659535993
      ],
      [
        "95",
        -10.011248956128272
      ],
      [
        "ization",
        -10.011669412716515
      ],
      [
        "kind",
        -10.012863392613504
      ],
      [
        "special",
        -10.013097689328486
      ],
      [
        "gen",
        -10.01310020175393
      ],
      [
        "97",
        -10.015331690905214
      ],
      [
        "render",
        -10.015502653326255
      ],
      [
        "recommendation",
        -10.015699079087124
      ],
      [
        "compound",
        -10.015747504828521
      ],
      [
        "font",
        -10.015918446415174
      ],
      [
        "yet",
        -10.016128503090904
      ],
      [
        "Octo",
        -10.01626468909347
      ],
      [
        "country",
        -10.016791406580353
      ],
      [
        "67",
        -10.016845275188277
      ],
      [
        "ED",
        -10.016952014417893
      ],
      [
        "Pro",
        -10.017811497636508
      ],
      [
        "Start",
        -10.018337764710115
      ],
      [
        "roduction",
        -10.018980211099972
      ],
      [
        "'\\",
        -10.019071451715515
      ],
      [
        "gcd",
        -10.021891298881279
      ],
      [
        "amid",
        -10.022309202747277
      ],
      [
        "_transform",
        -10.022850050967563
      ],
      [
        "ardware",
        -10.023226515337491
      ],
      [
        "del",
        -10.02334264493345
      ],
      [
        "respective",
        -10.02354809706953
      ],
      [
        "_tokenize",
        -10.023713307739296
      ],
      [
        "reward",
        -10.023821997121807
      ],
      [
        "carry",
        -10.023881225258451
      ],
      [
        "zero",
        -10.024525103419158
      ],
      [
        "standard",
        -10.024633430568596
      ],
      [
        "sent",
        -10.027444932108933
      ],
      [
        "away",
        -10.027491365973082
      ],
      [
        "{}\"",
        -10.028197555227862
      ],
      [
        "fill",
        -10.029217857070575
      ],
      [
        "charge",
        -10.030042499156337
      ],
      [
        "socket",
        -10.030064305379746
      ],
      [
        "site",
        -10.03071432054194
      ],
      [
        "max_value",
        -10.03072594254793
      ],
      [
        "alphabet",
        -10.031295380257374
      ],
      [
        "sorting",
        -10.031495483596933
      ],
      [
        "advertis",
        -10.033892977776219
      ],
      [
        "coding",
        -10.034044041697825
      ],
      [
        "manage",
        -10.034706811646405
      ],
      [
        "competitive",
        -10.035485928995508
      ],
      [
        "FROM",
        -10.035486328218147
      ],
      [
        "premium",
        -10.035674874715635
      ],
      [
        "surge",
        -10.035745880471861
      ],
      [
        "62",
        -10.035925150469247
      ],
      [
        "tail",
        -10.036362727362985
      ],
      [
        "Red",
        -10.037589153136967
      ],
      [
        "raw_",
        -10.037679767447662
      ],
      [
        "broad",
        -10.03770061328715
      ],
      [
        "streaming",
        -10.038451545935887
      ],
      [
        "tweets",
        -10.03880936284199
      ],
      [
        "Dict",
        -10.039360366959631
      ],
      [
        "menu",
        -10.039456343310075
      ],
      [
        "Prime",
        -10.039524946310566
      ],
      [
        "fuel",
        -10.039580131386359
      ],
      [
        "vehicles",
        -10.040048674575722
      ],
      [
        "emails",
        -10.041578879789338
      ],
      [
        "2D",
        -10.042032835659754
      ],
      [
        "calculate_",
        -10.043741005891555
      ],
      [
        "secure",
        -10.046122314863101
      ],
      [
        "screen",
        -10.046976598898318
      ],
      [
        "shuffle",
        -10.04701178351505
      ],
      [
        "changed",
        -10.047060524517885
      ],
      [
        "linear_model",
        -10.048210438053971
      ],
      [
        "88",
        -10.049015254625811
      ],
      [
        "yond",
        -10.049600444079699
      ],
      [
        "Morgan",
        -10.04974378080783
      ],
      [
        "prefix",
        -10.050259351431812
      ],
      [
        "rev",
        -10.05046780489122
      ],
      [
        "iter",
        -10.05408322847186
      ],
      [
        "Extract",
        -10.05509303751156
      ],
      [
        "live",
        -10.05514336060407
      ],
      [
        "super",
        -10.055615623984714
      ],
      [
        "Capital",
        -10.055730771994913
      ],
      [
        "intersection",
        -10.055819469353587
      ],
      [
        "Corp",
        -10.056034270191262
      ],
      [
        "hours",
        -10.056425634686473
      ],
      [
        "successful",
        -10.056480865392182
      ],
      [
        "prior",
        -10.057088797913242
      ],
      [
        "hand",
        -10.057099998351383
      ],
      [
        "pack",
        -10.057125237847668
      ],
      [
        "ley",
        -10.057381983385476
      ],
      [
        "addition",
        -10.05936305654233
      ],
      [
        "ry",
        -10.06305402895934
      ],
      [
        "tic",
        -10.063157562552561
      ],
      [
        "upgrade",
        -10.06315898890204
      ],
      [
        "pric",
        -10.063159745134836
      ],
      [
        "Wood",
        -10.063943196387346
      ],
      [
        "President",
        -10.063943337497378
      ],
      [
        "Sept",
        -10.063943843183049
      ],
      [
        "bottom",
        -10.06395453685012
      ],
      [
        "celsius",
        -10.065925637600643
      ],
      [
        "means",
        -10.066153521634376
      ],
      [
        "req",
        -10.066632223782992
      ],
      [
        "stop",
        -10.066723975304303
      ],
      [
        "Num",
        -10.066774606910322
      ],
      [
        "ru",
        -10.067057328558642
      ],
      [
        "Your",
        -10.067694879070041
      ],
      [
        "similar",
        -10.067891107958939
      ],
      [
        "complex",
        -10.067979298302657
      ],
      [
        "Update",
        -10.068213288943182
      ],
      [
        "levels",
        -10.069569488943326
      ],
      [
        "06",
        -10.069856851876615
      ],
      [
        "ness",
        -10.070519942305456
      ],
      [
        "epoch",
        -10.070708487344838
      ],
      [
        "adding",
        -10.071853029127572
      ],
      [
        "lazy",
        -10.07222549756672
      ],
      [
        "quality",
        -10.072541455067576
      ],
      [
        "goal",
        -10.073002488199887
      ],
      [
        "scrape",
        -10.073259419456317
      ],
      [
        "apabilities",
        -10.07559840395387
      ],
      [
        "Script",
        -10.076391345466059
      ],
      [
        "VALUE",
        -10.076391350174735
      ],
      [
        "progress",
        -10.076393176763494
      ],
      [
        "Nov",
        -10.076693000837121
      ],
      [
        "DIA",
        -10.076705322924706
      ],
      [
        "classification",
        -10.076861363270716
      ],
      [
        "Here",
        -10.078754697113947
      ],
      [
        "later",
        -10.078808379944135
      ],
      [
        "quantit",
        -10.079144311428571
      ],
      [
        "apply",
        -10.080370214971502
      ],
      [
        "sustain",
        -10.080531516575032
      ],
      [
        "unique_",
        -10.080687977465065
      ],
      [
        "additional",
        -10.081057122809504
      ],
      [
        "87",
        -10.08231778537683
      ],
      [
        "cipher",
        -10.084707955587216
      ],
      [
        "SELECT",
        -10.084777126586276
      ],
      [
        "merged_",
        -10.084890762826252
      ],
      [
        "posts",
        -10.085796368934048
      ],
      [
        "pad",
        -10.086062140098978
      ],
      [
        "ogging",
        -10.086602128851714
      ],
      [
        "NVI",
        -10.086957741314649
      ],
      [
        "fall",
        -10.0885008252009
      ],
      [
        "family",
        -10.088996601495882
      ],
      [
        "private",
        -10.089012017625222
      ],
      [
        "When",
        -10.08902253634476
      ],
      [
        "neighbor",
        -10.090550084091271
      ],
      [
        "Remove",
        -10.092071309783812
      ],
      [
        "Services",
        -10.092256746679576
      ],
      [
        "send",
        -10.092451399144242
      ],
      [
        "outperform",
        -10.093117461276279
      ],
      [
        "Nasdaq",
        -10.093233824220771
      ],
      [
        "Total",
        -10.093243197317637
      ],
      [
        "Discover",
        -10.093265040682095
      ],
      [
        "Summar",
        -10.093365432130284
      ],
      [
        "doption",
        -10.093426800269322
      ],
      [
        "jumped",
        -10.094607670493206
      ],
      [
        "button",
        -10.09567776533526
      ],
      [
        "headers",
        -10.09683646969033
      ],
      [
        "255",
        -10.097591171672324
      ],
      [
        "combination",
        -10.09875811147219
      ],
      [
        "guess",
        -10.099065283671791
      ],
      [
        "54",
        -10.099518667727024
      ],
      [
        "IP",
        -10.099552627804922
      ],
      [
        "missing",
        -10.100279127608765
      ],
      [
        "preprocess",
        -10.10095447994805
      ],
      [
        "dtype",
        -10.102289293351397
      ],
      [
        "chart",
        -10.103345071239364
      ],
      [
        "running",
        -10.103385660746753
      ],
      [
        "triangle",
        -10.103963204934669
      ],
      [
        "adjust",
        -10.10639645961891
      ],
      [
        "App",
        -10.107161317413773
      ],
      [
        "effort",
        -10.110367161094691
      ],
      [
        "swap",
        -10.110517340919372
      ],
      [
        "startup",
        -10.110767998316856
      ],
      [
        "downside",
        -10.111789867429554
      ],
      [
        "lat",
        -10.112100297575893
      ],
      [
        "fee",
        -10.113976406070062
      ],
      [
        "Global",
        -10.114693842084701
      ],
      [
        "executive",
        -10.114715823033666
      ],
      [
        "divide",
        -10.11476937559833
      ],
      [
        "Black",
        -10.11493122608436
      ],
      [
        "Vie",
        -10.115024660624158
      ],
      [
        "comprehension",
        -10.115124495212102
      ],
      [
        "ized",
        -10.115366973388971
      ],
      [
        "loads",
        -10.116578272127402
      ],
      [
        "clean",
        -10.116748662154833
      ],
      [
        "material",
        -10.117503021125401
      ],
      [
        "setup",
        -10.118228410494098
      ],
      [
        "pairs",
        -10.118616673560354
      ],
      [
        "supported",
        -10.1186355602225
      ],
      [
        "ful",
        -10.118801966282778
      ],
      [
        "Public",
        -10.119041668243757
      ],
      [
        "equation",
        -10.119041908825958
      ],
      [
        "York",
        -10.119081271030481
      ],
      [
        "rapid",
        -10.11908720112881
      ],
      [
        "Char",
        -10.119300778491123
      ],
      [
        "}')",
        -10.119533211066614
      ],
      [
        "innovation",
        -10.119546744882925
      ],
      [
        "dot",
        -10.12011057877644
      ],
      [
        "includes",
        -10.120226904732526
      ],
      [
        "critical",
        -10.123480404539453
      ],
      [
        "Two",
        -10.123495473489951
      ],
      [
        "x_train",
        -10.124509689617081
      ],
      [
        "=[]",
        -10.12480084979766
      ],
      [
        "72",
        -10.12505401014048
      ],
      [
        "header",
        -10.125751155314948
      ],
      [
        "house",
        -10.127529336710717
      ],
      [
        "properties",
        -10.127704220111443
      ],
      [
        "Desp",
        -10.127873490130495
      ],
      [
        "license",
        -10.129099411682967
      ],
      [
        "AAPL",
        -10.132201902716371
      ],
      [
        "questions",
        -10.1331388161237
      ],
      [
        "sure",
        -10.133301028818636
      ],
      [
        "Reu",
        -10.13348614431527
      ],
      [
        "_date",
        -10.13507221770948
      ],
      [
        "filtered_",
        -10.13546283239015
      ],
      [
        "dictionarie",
        -10.136624515550377
      ],
      [
        "x2",
        -10.137106092114701
      ],
      [
        "endpoint",
        -10.137250780295112
      ],
      [
        "class_",
        -10.139924602421083
      ],
      [
        "fully",
        -10.14111008166067
      ],
      [
        "history",
        -10.14117162119881
      ],
      [
        "align",
        -10.141699911207152
      ],
      [
        "mention",
        -10.142000720722356
      ],
      [
        "Defens",
        -10.142191823416557
      ],
      [
        "\"])",
        -10.143335901847681
      ],
      [
        "Auto",
        -10.143976392302596
      ],
      [
        "META",
        -10.145535174002841
      ],
      [
        "framework",
        -10.1458739926709
      ],
      [
        "zeros",
        -10.147401818905145
      ],
      [
        "bot",
        -10.148050108127144
      ],
      [
        "regression",
        -10.148590462682918
      ],
      [
        "⁠",
        -10.15001754546146
      ],
      [
        "circle",
        -10.150017546162948
      ],
      [
        "Parse",
        -10.150745141294388
      ],
      [
        "did",
        -10.150908380164703
      ],
      [
        "Abb",
        -10.150962297568379
      ],
      [
        "economic",
        -10.152194461163027
      ],
      [
        "]*",
        -10.152703022207305
      ],
      [
        "ctx",
        -10.152745765745742
      ],
      [
        "\":\"",
        -10.154984834395451
      ],
      [
        "SFT",
        -10.154986378645624
      ],
      [
        "ex",
        -10.156534164343784
      ],
      [
        "indices",
        -10.156960399417432
      ],
      [
        "Class",
        -10.158960757456544
      ],
      [
        "categories",
        -10.159126124782118
      ],
      [
        "Boe",
        -10.159166215591174
      ],
      [
        "conditions",
        -10.159870338062838
      ],
      [
        "matter",
        -10.160487802098647
      ],
      [
        "tie",
        -10.16071316303141
      ],
      [
        "!/",
        -10.161174707649511
      ],
      [
        "documents",
        -10.161946942195286
      ],
      [
        "Top",
        -10.163325690893458
      ],
      [
        "bullish",
        -10.163595830546303
      ],
      [
        "ial",
        -10.164089653644375
      ],
      [
        "capitalize",
        -10.164103425929255
      ],
      [
        "parts",
        -10.165453694830337
      ],
      [
        "computer",
        -10.166440725725668
      ],
      [
        "vehicle",
        -10.167558957830929
      ],
      [
        "Let",
        -10.167903502818913
      ],
      [
        "Technologi",
        -10.168158635454818
      ],
      [
        "Most",
        -10.168255347430307
      ],
      [
        "Space",
        -10.169411447495106
      ],
      [
        "my_dict",
        -10.169452580571132
      ],
      [
        "retrieve",
        -10.171924593671282
      ],
      [
        "natural",
        -10.172744054762479
      ],
      [
        "dump",
        -10.172794468580046
      ],
      [
        "98",
        -10.175946487630096
      ],
      [
        "symbol",
        -10.176218907276597
      ],
      [
        "keyword",
        -10.177180042103355
      ],
      [
        "boom",
        -10.177357831491857
      ],
      [
        "calculat",
        -10.177564404000496
      ],
      [
        "objective",
        -10.178051296223451
      ],
      [
        "sorted_",
        -10.178535231102645
      ],
      [
        "era",
        -10.179410808111374
      ],
      [
        "condition",
        -10.179969422242568
      ],
      [
        "acknowledge",
        -10.180005463523084
      ],
      [
        "!')",
        -10.180355132279201
      ],
      [
        "contents",
        -10.181279403074067
      ],
      [
        "types",
        -10.181368097595419
      ],
      [
        "subset",
        -10.182531955845818
      ],
      [
        "08",
        -10.182582409663638
      ],
      [
        "SE",
        -10.183021830132624
      ],
      [
        "front",
        -10.18379307597139
      ],
      [
        "ology",
        -10.184768665814769
      ],
      [
        "multiplication",
        -10.186634844749662
      ],
      [
        "advantage",
        -10.186634844789271
      ],
      [
        "approval",
        -10.186634874983243
      ],
      [
        "Regression",
        -10.186689122892425
      ],
      [
        "IS",
        -10.186724600649168
      ],
      [
        "_in_",
        -10.186788339930656
      ],
      [
        "LinkedList",
        -10.186831282977145
      ],
      [
        "Dis",
        -10.187150229132177
      ],
      [
        "shows",
        -10.188246415817323
      ],
      [
        "received",
        -10.189360638404729
      ],
      [
        "iterate",
        -10.189407550825337
      ],
      [
        "reversed",
        -10.189745722411526
      ],
      [
        "distribution",
        -10.191200749113793
      ],
      [
        "Flow",
        -10.191215007132618
      ],
      [
        "next_",
        -10.191230775648076
      ],
      [
        "Column",
        -10.191308309522626
      ],
      [
        "consecutive",
        -10.191632472928768
      ],
      [
        "x_test",
        -10.191693503249038
      ],
      [
        "mail",
        -10.19285745635015
      ],
      [
        "fahrenheit",
        -10.193105584185378
      ],
      [
        "decode",
        -10.193479817984628
      ],
      [
        "Web",
        -10.194817227335898
      ],
      [
        "!'",
        -10.194983162316793
      ],
      [
        "hex",
        -10.195239118325409
      ],
      [
        "style",
        -10.195631021099649
      ],
      [
        "seem",
        -10.195747653859174
      ],
      [
        "expense",
        -10.196023064822672
      ],
      [
        "Monday",
        -10.196201983153154
      ],
      [
        "Bot",
        -10.196849885362909
      ],
      [
        "PC",
        -10.197181247161122
      ],
      [
        "x1",
        -10.197381733036814
      ],
      [
        "DT",
        -10.197832689812946
      ],
      [
        "needed",
        -10.199899641991443
      ],
      [
        "=\"\")",
        -10.19993282443156
      ],
      [
        "created",
        -10.200694284181619
      ],
      [
        "Community",
        -10.200724376240547
      ],
      [
        "direction",
        -10.201280080751046
      ],
      [
        "tmp",
        -10.202043753299147
      ],
      [
        "encrypt",
        -10.202388517444227
      ],
      [
        "_val",
        -10.202675335734751
      ],
      [
        "ng",
        -10.202844995674837
      ],
      [
        "}\")",
        -10.203289750756873
      ],
      [
        "tags",
        -10.203423374037214
      ],
      [
        "GN",
        -10.203437189569506
      ],
      [
        "ver",
        -10.203568227824617
      ],
      [
        "developer",
        -10.204075710280053
      ],
      [
        "output_",
        -10.204111875452009
      ],
      [
        "foo",
        -10.204494144782295
      ],
      [
        "Tuesday",
        -10.205459248338675
      ],
      [
        "operate",
        -10.205460837084818
      ],
      [
        "Person",
        -10.20551399391616
      ],
      [
        "reviews",
        -10.205704993226313
      ],
      [
        "always",
        -10.205754974413388
      ],
      [
        "2030",
        -10.206377230681454
      ],
      [
        "force",
        -10.207697036103017
      ],
      [
        "avg",
        -10.207866999905095
      ],
      [
        "loc",
        -10.20801916339386
      ],
      [
        "74",
        -10.208274902817179
      ],
      [
        "sold",
        -10.20843818654376
      ],
      [
        "abc",
        -10.209491428934893
      ],
      [
        "expert",
        -10.210223870694104
      ],
      [
        "approach",
        -10.213679685624342
      ],
      [
        "':'",
        -10.214000248432693
      ],
      [
        "basi",
        -10.214774898725704
      ],
      [
        "']]",
        -10.215411181025786
      ],
      [
        "room",
        -10.21619387861769
      ],
      [
        "gre",
        -10.216222245668485
      ],
      [
        "remove_duplicate",
        -10.216578886067317
      ],
      [
        "DB",
        -10.217312870380763
      ],
      [
        "aero",
        -10.217378604131255
      ],
      [
        "urllib",
        -10.217394119837977
      ],
      [
        "minutes",
        -10.217403918619741
      ],
      [
        "prospect",
        -10.219897941579356
      ],
      [
        "Car",
        -10.219962115226355
      ],
      [
        "selling",
        -10.221181803029022
      ],
      [
        "accelerate",
        -10.2231741280512
      ],
      [
        "opt",
        -10.223509887669039
      ],
      [
        "chief",
        -10.224644202278704
      ],
      [
        "Series",
        -10.224652943036752
      ],
      [
        "normal",
        -10.225813432127246
      ],
      [
        "cards",
        -10.226427256013062
      ],
      [
        "Bloomberg",
        -10.229498468947117
      ],
      [
        "neural",
        -10.229498479894303
      ],
      [
        "needs",
        -10.2325898766683
      ],
      [
        "150",
        -10.234291256179848
      ],
      [
        "Sentiment",
        -10.234376520517024
      ],
      [
        "entropy",
        -10.23437663482109
      ],
      [
        "popular",
        -10.234405171511852
      ],
      [
        "stay",
        -10.234947833386453
      ],
      [
        "activity",
        -10.235439513616488
      ],
      [
        "flat",
        -10.235463433091635
      ],
      [
        "ut",
        -10.236777398038427
      ],
      [
        "groups",
        -10.238437467570511
      ],
      [
        "colors",
        -10.238817461735422
      ],
      [
        "~",
        -10.23927847036919
      ],
      [
        "Object",
        -10.239278487075744
      ],
      [
        "channel",
        -10.239278548377118
      ],
      [
        "Button",
        -10.239442439330137
      ],
      [
        "ittle",
        -10.239737605387795
      ],
      [
        "exp",
        -10.241745805914322
      ],
      [
        "\"],",
        -10.24234642237213
      ],
      [
        "larger",
        -10.243154737864469
      ],
      [
        "tak",
        -10.24385044959414
      ],
      [
        "approximate",
        -10.244204586061828
      ],
      [
        "Cash",
        -10.244229445105628
      ],
      [
        "search_",
        -10.244272646586044
      ],
      [
        "confidence",
        -10.244290836757965
      ],
      [
        "icon",
        -10.245598573254597
      ],
      [
        "77",
        -10.245628593521118
      ],
      [
        "'--",
        -10.24749288112772
      ],
      [
        "usage",
        -10.247850448361474
      ],
      [
        "ended",
        -10.24918090513044
      ],
      [
        "divisor",
        -10.249185136676559
      ],
      [
        "79",
        -10.249507900583076
      ],
      [
        "rem",
        -10.250258176245971
      ],
      [
        "_element",
        -10.251883904527405
      ],
      [
        "123",
        -10.252100713930817
      ],
      [
        "jobs",
        -10.252690121620024
      ],
      [
        "login",
        -10.253437372798242
      ],
      [
        "Multinomial",
        -10.254150724042724
      ],
      [
        "clients",
        -10.254405497651383
      ],
      [
        "{}'",
        -10.255250307675102
      ],
      [
        "2027",
        -10.257080895596427
      ],
      [
        "subtract",
        -10.257723407444226
      ],
      [
        "got",
        -10.258548988093096
      ],
      [
        "discuss",
        -10.258845292229545
      ],
      [
        "83",
        -10.259306777004856
      ],
      [
        "RS",
        -10.259943842932977
      ],
      [
        "hard",
        -10.260249841553069
      ],
      [
        "READ",
        -10.261492159896473
      ],
      [
        "('\\",
        -10.261910811106514
      ],
      [
        "metric",
        -10.262320492336222
      ],
      [
        "alpha",
        -10.264113527120918
      ],
      [
        "Source",
        -10.26416383902229
      ],
      [
        "smaller",
        -10.265071445422466
      ],
      [
        "fell",
        -10.266594514774475
      ],
      [
        "stablecoin",
        -10.269312564480316
      ],
      [
        "care",
        -10.269497660370462
      ],
      [
        "inflation",
        -10.26954827419675
      ],
      [
        "Book",
        -10.269684656169975
      ],
      [
        "weigh",
        -10.271008232197909
      ],
      [
        "rally",
        -10.27191751332583
      ],
      [
        "63",
        -10.273824596400718
      ],
      [
        "Thursday",
        -10.274281982812415
      ],
      [
        "Right",
        -10.274283057897264
      ],
      [
        "beginning",
        -10.274305984790995
      ],
      [
        "announcement",
        -10.274556413109657
      ],
      [
        "_idx",
        -10.276275021399272
      ],
      [
        "primary",
        -10.276614984613055
      ],
      [
        "_item",
        -10.276943035821777
      ],
      [
        "_from_",
        -10.278467608249237
      ],
      [
        "par",
        -10.278808315448327
      ],
      [
        "Semiconductor",
        -10.279384020567994
      ],
      [
        "Dir",
        -10.281246616362942
      ],
      [
        "overall",
        -10.28154950231084
      ],
      [
        "reader",
        -10.283104957232716
      ],
      [
        "dynamic",
        -10.284512226051879
      ],
      [
        "exposure",
        -10.28451232122546
      ],
      [
        "Energi",
        -10.284512570749504
      ],
      [
        "revision",
        -10.284856607023997
      ],
      [
        "bid",
        -10.28593698380581
      ],
      [
        "Tan",
        -10.286266593375828
      ],
      [
        "provider",
        -10.286345658062107
      ],
      [
        "pl",
        -10.286485405812078
      ],
      [
        "58",
        -10.286747437883527
      ],
      [
        "Other",
        -10.28734346530064
      ],
      [
        "ON",
        -10.28767374735936
      ],
      [
        "Software",
        -10.28955419391806
      ],
      [
        "sheet",
        -10.289654879675984
      ],
      [
        "descending",
        -10.289683751055456
      ],
      [
        "devices",
        -10.28979920508917
      ],
      [
        "89",
        -10.291185917420544
      ],
      [
        "-*-",
        -10.291217271696059
      ],
      [
        "★★★★★",
        -10.291313051746698
      ],
      [
        "73",
        -10.29204622185241
      ],
      [
        "Europe",
        -10.294560785475163
      ],
      [
        "fourth",
        -10.295309819227858
      ],
      [
        "hav",
        -10.295839077251465
      ],
      [
        "ramer",
        -10.296854173005196
      ],
      [
        "AL",
        -10.2979567750773
      ],
      [
        "Compute",
        -10.298955192150846
      ],
      [
        "ones",
        -10.299663051780264
      ],
      [
        "Logistic",
        -10.300060247082595
      ],
      [
        "Call",
        -10.300403152827986
      ],
      [
        "ical",
        -10.300492758440678
      ],
      [
        "headlines",
        -10.301155384798761
      ],
      [
        "Main",
        -10.302435954570306
      ],
      [
        "★",
        -10.30362280323645
      ],
      [
        "slight",
        -10.304190257694128
      ],
      [
        "parameter",
        -10.304840119253079
      ],
      [
        "permutation",
        -10.304927561187757
      ],
      [
        "climb",
        -10.30542598801842
      ],
      [
        "adam",
        -10.305505410517345
      ],
      [
        "trends",
        -10.306208634623992
      ],
      [
        "named",
        -10.307585504460464
      ],
      [
        "print_",
        -10.30934443284513
      ],
      [
        "gene",
        -10.309948769424079
      ],
      [
        "excel",
        -10.310214521659606
      ],
      [
        "gap",
        -10.310350770553397
      ],
      [
        "Taiwan",
        -10.310555353394598
      ],
      [
        "static",
        -10.310647994934497
      ],
      [
        "ous",
        -10.310838228354385
      ],
      [
        "53",
        -10.310947217818791
      ],
      [
        "**$",
        -10.312662605655188
      ],
      [
        "regex",
        -10.312680236290692
      ],
      [
        "93",
        -10.31404783187137
      ],
      [
        "76",
        -10.31517297016806
      ],
      [
        "happen",
        -10.31561889270517
      ],
      [
        "Handler",
        -10.316125932601725
      ],
      [
        "uses",
        -10.316354741868706
      ],
      [
        "More",
        -10.31669844390084
      ],
      [
        "parse_",
        -10.318142832818651
      ],
      [
        "arnings",
        -10.318560359350652
      ],
      [
        "robot",
        -10.32052903756362
      ],
      [
        "69",
        -10.320624470979588
      ],
      [
        "PS",
        -10.321026667265258
      ],
      [
        "equip",
        -10.321172761325121
      ],
      [
        "Max",
        -10.32181269357794
      ],
      [
        "ask",
        -10.322265889583514
      ],
      [
        "Bru",
        -10.322324227801985
      ],
      [
        "om",
        -10.3229805500915
      ],
      [
        "Analys",
        -10.323040242428949
      ],
      [
        "matche",
        -10.323375180276901
      ],
      [
        "seek",
        -10.323526002844488
      ],
      [
        "End",
        -10.324658892102905
      ],
      [
        "04",
        -10.324902441147795
      ],
      [
        "click",
        -10.326514064796516
      ],
      [
        "CSV",
        -10.326673695370541
      ],
      [
        "sql",
        -10.327537677168042
      ],
      [
        "81",
        -10.328130318432494
      ],
      [
        "_set",
        -10.32873669222042
      ],
      [
        "steps",
        -10.328849414237997
      ],
      [
        ")**",
        -10.329351151508384
      ],
      [
        "ending",
        -10.329969374340719
      ],
      [
        "sentences",
        -10.33025542490088
      ],
      [
        "Path",
        -10.331695575347235
      ],
      [
        "Product",
        -10.331883502104972
      ],
      [
        "phrase",
        -10.331889396200776
      ],
      [
        "ecosystem",
        -10.331891662029632
      ],
      [
        "plann",
        -10.332777147511552
      ],
      [
        "IL",
        -10.334906468385192
      ],
      [
        "Stan",
        -10.33606383366494
      ],
      [
        "love",
        -10.336565909209982
      ],
      [
        "7000",
        -10.337027980864415
      ],
      [
        "ative",
        -10.33902050203292
      ],
      [
        "heading",
        -10.340265030571679
      ],
      [
        "rival",
        -10.340436195303273
      ],
      [
        "known",
        -10.3409008951465
      ],
      [
        "recursive",
        -10.341206283819357
      ],
      [
        "roll",
        -10.341900657780881
      ],
      [
        "blue",
        -10.342729710586427
      ],
      [
        "strengthen",
        -10.342743835993083
      ],
      [
        "Home",
        -10.342890538822399
      ],
      [
        "top_",
        -10.3436496647866
      ],
      [
        "onshor",
        -10.343691773242643
      ],
      [
        "remaining",
        -10.343922224170855
      ],
      [
        "seconds",
        -10.344669761646639
      ],
      [
        "Ro",
        -10.347492386075082
      ],
      [
        "ature",
        -10.347541537058174
      ],
      [
        "GOOG",
        -10.347793509697741
      ],
      [
        "art",
        -10.347817274137803
      ],
      [
        "light",
        -10.348032347732937
      ],
      [
        "Stack",
        -10.348149844825873
      ],
      [
        "social",
        -10.34819425692455
      ],
      [
        "Average",
        -10.348195521662523
      ],
      [
        "delivery",
        -10.348398300886078
      ],
      [
        "approved",
        -10.348683030068344
      ],
      [
        "percentage",
        -10.348874841610591
      ],
      [
        "cache",
        -10.349619713256114
      ],
      [
        "respond",
        -10.350900373375342
      ],
      [
        "won",
        -10.352303185921278
      ],
      [
        "sum_of_",
        -10.35338430985001
      ],
      [
        "summary",
        -10.35369541240501
      ],
      [
        "Dictionary",
        -10.353894195077565
      ],
      [
        "timestamp",
        -10.353926069942002
      ],
      [
        "started",
        -10.354154188936583
      ],
      [
        "closing",
        -10.355714013882936
      ],
      [
        "llist",
        -10.355773321177416
      ],
      [
        "meta",
        -10.356242519729928
      ],
      [
        "PL",
        -10.357202677554042
      ],
      [
        "tokenize",
        -10.358763073477203
      ],
      [
        "rect",
        -10.358893454068465
      ],
      [
        "images",
        -10.3591866236685
      ],
      [
        "entire",
        -10.359239780434645
      ],
      [
        "historical",
        -10.35957610852174
      ],
      [
        "hire",
        -10.359622070327283
      ],
      [
        "gram",
        -10.36033964756681
      ],
      [
        "via",
        -10.360452267656054
      ],
      [
        "episode",
        -10.36068591176714
      ],
      [
        "stage",
        -10.362093965063178
      ],
      [
        "Celsius",
        -10.362221053579475
      ],
      [
        "angle",
        -10.363507382300341
      ],
      [
        "norm",
        -10.364014518322755
      ],
      [
        "Solution",
        -10.364768995077089
      ],
      [
        "Focus",
        -10.36476910509959
      ],
      [
        "Device",
        -10.364818769189647
      ],
      [
        "modest",
        -10.365135817453137
      ],
      [
        "measure",
        -10.365350408752953
      ],
      [
        "accelerat",
        -10.365489826207916
      ],
      [
        "UK",
        -10.365779304063715
      ],
      [
        "engineer",
        -10.366370871481566
      ],
      [
        "till",
        -10.36705492665563
      ],
      [
        "longest_",
        -10.369163104416208
      ],
      [
        "assumption",
        -10.370355580878996
      ],
      [
        "96",
        -10.371009451820452
      ],
      [
        "stdout",
        -10.371794042629702
      ],
      [
        "squares",
        -10.372294366705702
      ],
      [
        "almost",
        -10.373421856468948
      ],
      [
        "lock",
        -10.374612864204696
      ],
      [
        "Predict",
        -10.375817892687595
      ],
      [
        "Loop",
        -10.375975641875973
      ],
      [
        "sleep",
        -10.375983184287609
      ],
      [
        "Last",
        -10.37601388075353
      ],
      [
        "effective",
        -10.37601556129896
      ],
      [
        "Friday",
        -10.376074661095789
      ],
      [
        "checks",
        -10.376585121415587
      ],
      [
        "meaningful",
        -10.376887987710216
      ],
      [
        "cnt",
        -10.377242856120787
      ],
      [
        "views",
        -10.378801407388881
      ],
      [
        "mp",
        -10.380041752914114
      ],
      [
        "strength",
        -10.381608458779462
      ],
      [
        "cube",
        -10.382385410546252
      ],
      [
        "mm",
        -10.382632927238461
      ],
      [
        "arr2",
        -10.38294193259447
      ],
      [
        "stats",
        -10.383065467737492
      ],
      [
        "partner",
        -10.384009191906333
      ],
      [
        "listen",
        -10.385434718128893
      ],
      [
        "outcome",
        -10.385663941261889
      ],
      [
        "white",
        -10.386933015045166
      ],
      [
        "retail",
        -10.387124969258725
      ],
      [
        "Ratio",
        -10.387303518440746
      ],
      [
        "Bitcoin",
        -10.387305897992793
      ],
      [
        "sources",
        -10.387348324744629
      ],
      [
        "section",
        -10.387581247010907
      ],
      [
        "jumps",
        -10.389382827843665
      ],
      [
        "cls",
        -10.390397081813665
      ],
      [
        "border",
        -10.39186581511495
      ],
      [
        "traditional",
        -10.393019378725407
      ],
      [
        "robust",
        -10.393020281494621
      ],
      [
        "holiday",
        -10.393022619911637
      ],
      [
        "acquire",
        -10.393217745685444
      ],
      [
        "etc",
        -10.39333879425195
      ],
      [
        "probability",
        -10.393747903718024
      ],
      [
        "alphabetical",
        -10.393942355704691
      ],
      [
        "first_",
        -10.394524601146681
      ],
      [
        "player_",
        -10.39552501349473
      ],
      [
        "mission",
        -10.39587164644308
      ],
      [
        "begin",
        -10.395875043354147
      ],
      [
        "2022",
        -10.396362656416876
      ],
      [
        "_dim",
        -10.396756740293462
      ],
      [
        "writ",
        -10.396932734414023
      ],
      [
        "68",
        -10.398206948153502
      ],
      [
        "prime_numbers",
        -10.398517383123924
      ],
      [
        "corpus",
        -10.39876655188448
      ],
      [
        "black",
        -10.399593709951272
      ],
      [
        "}\"",
        -10.400002141005068
      ],
      [
        "iPhone",
        -10.400516118497379
      ],
      [
        "'{",
        -10.402668851468352
      ],
      [
        "iving",
        -10.402929677681644
      ],
      [
        "Sorted",
        -10.404377385593751
      ],
      [
        "filing",
        -10.404549015903584
      ],
      [
        "export",
        -10.404688959928386
      ],
      [
        "oid",
        -10.404917983686031
      ],
      [
        "Table",
        -10.405264016619615
      ],
      [
        "``",
        -10.405752719398262
      ],
      [
        "Numbers",
        -10.405866116431994
      ],
      [
        "indicat",
        -10.405977870248643
      ],
      [
        "ought",
        -10.407246528170935
      ],
      [
        "operational",
        -10.407306956629425
      ],
      [
        "test_str",
        -10.407727968322348
      ],
      [
        "founder",
        -10.408010635468397
      ],
      [
        "especial",
        -10.408824404578866
      ],
      [
        "RandomForest",
        -10.41036709502934
      ],
      [
        "ER",
        -10.41062737327408
      ],
      [
        "fix",
        -10.41065486798794
      ],
      [
        "European",
        -10.410684398335402
      ],
      [
        "92",
        -10.411661060932264
      ],
      [
        "Sales",
        -10.412319022664894
      ],
      [
        "ride",
        -10.412698942855812
      ],
      [
        "[['",
        -10.413094214614798
      ],
      [
        "ence",
        -10.413108396889886
      ],
      [
        "settings",
        -10.414374283546245
      ],
      [
        "ST",
        -10.415039066528145
      ],
      [
        "missile",
        -10.41621132275757
      ],
      [
        "Student",
        -10.416220778654107
      ],
      [
        "attractive",
        -10.416374367992674
      ],
      [
        "movies",
        -10.416577283359068
      ],
      [
        "last_node",
        -10.41727045151088
      ],
      [
        "traverse",
        -10.417683185867455
      ],
      [
        "lift",
        -10.418218286334895
      ],
      [
        "vario",
        -10.418711261969984
      ],
      [
        "({",
        -10.41968982922441
      ],
      [
        "estimated",
        -10.420024160182638
      ],
      [
        "Player",
        -10.420618661961635
      ],
      [
        "heavy",
        -10.42112927184495
      ],
      [
        "Integer",
        -10.422091114355254
      ],
      [
        "prompt",
        -10.422091585511065
      ],
      [
        "From",
        -10.422109054186699
      ],
      [
        "cmd",
        -10.422418274663977
      ],
      [
        "backlog",
        -10.423217025984751
      ],
      [
        "encrypted_",
        -10.425090767212847
      ],
      [
        "integrate",
        -10.425226357241996
      ],
      [
        "Apri",
        -10.425689933180404
      ],
      [
        "Per",
        -10.426599288891468
      ],
      [
        "initiative",
        -10.428008386216774
      ],
      [
        "encoding",
        -10.428030832454581
      ],
      [
        "logger",
        -10.428392880853838
      ],
      [
        "held",
        -10.428853593362305
      ],
      [
        "race",
        -10.428859181715731
      ],
      [
        "Gold",
        -10.428968713664535
      ],
      [
        "_con",
        -10.429190036064885
      ],
      [
        "reg",
        -10.430374234726404
      ],
      [
        "Post",
        -10.43073864996779
      ],
      [
        "soar",
        -10.431391885380387
      ],
      [
        "Jan",
        -10.431460642064785
      ],
      [
        "_word",
        -10.432123394104345
      ],
      [
        "components",
        -10.43290402739499
      ],
      [
        "07",
        -10.433159754392562
      ],
      [
        "Waymo",
        -10.43396109475321
      ],
      [
        "affect",
        -10.433967485836245
      ],
      [
        "Tech",
        -10.433969850171472
      ],
      [
        "threshold",
        -10.434438647263711
      ],
      [
        "random_number",
        -10.434742691590161
      ],
      [
        "AT",
        -10.435326600685936
      ],
      [
        "life",
        -10.435344345980312
      ],
      [
        "hug",
        -10.435691026752584
      ],
      [
        "learn",
        -10.435760959330574
      ],
      [
        "North",
        -10.436107531271816
      ],
      [
        "translate",
        -10.4365749076612
      ],
      [
        "flatten",
        -10.43720353171802
      ],
      [
        "best_",
        -10.437404411348087
      ],
      [
        "edit",
        -10.43795590264007
      ],
      [
        "limited",
        -10.439476378756208
      ],
      [
        "View",
        -10.439626170591307
      ],
      [
        "94",
        -10.441240305349197
      ],
      [
        "Mat",
        -10.441257620456064
      ],
      [
        "stopwords",
        -10.441295392788028
      ],
      [
        "confirm",
        -10.442444458951822
      ],
      [
        "raw",
        -10.444237599328716
      ],
      [
        "personal",
        -10.445477297468702
      ],
      [
        "Rivian",
        -10.445972784008802
      ],
      [
        "pred",
        -10.447567024272981
      ],
      [
        "Str",
        -10.449720616075997
      ],
      [
        "Fahrenheit",
        -10.450516393206554
      ],
      [
        "perm",
        -10.451696513070207
      ],
      [
        "expensive",
        -10.45203337889601
      ],
      [
        "NEXT",
        -10.452033588113345
      ],
      [
        "Disclosure",
        -10.45204356883352
      ],
      [
        "Title",
        -10.452050795327285
      ],
      [
        "ell",
        -10.452350564093702
      ],
      [
        "hyperscaler",
        -10.452385127241058
      ],
      [
        "Analyzer",
        -10.45257271723458
      ],
      [
        "peers",
        -10.452779575060484
      ],
      [
        "warning",
        -10.453443198315675
      ],
      [
        "tell",
        -10.454342761697127
      ],
      [
        "src_",
        -10.454725286259912
      ],
      [
        "hour",
        -10.456197440748685
      ],
      [
        "vice",
        -10.45692864011536
      ],
      [
        "Game",
        -10.456959098762091
      ],
      [
        "ility",
        -10.457597941298543
      ],
      [
        "Go",
        -10.45779176567469
      ],
      [
        "Order",
        -10.457804396367688
      ],
      [
        "enough",
        -10.458132534796103
      ],
      [
        "emini",
        -10.458225105719539
      ],
      [
        "is_palindrome",
        -10.458463799442622
      ],
      [
        "packages",
        -10.45886189291566
      ],
      [
        "claim",
        -10.458919910425154
      ],
      [
        "Janu",
        -10.459106027676068
      ],
      [
        "IT",
        -10.46089308474112
      ],
      [
        "trace",
        -10.46293264374458
      ],
      [
        "wealth",
        -10.462975783256796
      ],
      [
        "party",
        -10.46399995449164
      ],
      [
        "division",
        -10.464284627804812
      ],
      [
        "interface",
        -10.464457772337994
      ],
      [
        "selection",
        -10.468246078155893
      ],
      [
        "first_name",
        -10.469412812082943
      ],
      [
        "tory",
        -10.469963965020025
      ],
      [
        "piece",
        -10.470195782235873
      ],
      [
        "updates",
        -10.470388145361337
      ],
      [
        "Island",
        -10.470450304068994
      ],
      [
        "comparison",
        -10.470455490132059
      ],
      [
        "Shell",
        -10.470528697348325
      ],
      [
        "v1",
        -10.472820975708991
      ],
      [
        "_template",
        -10.474429515988874
      ],
      [
        "satellite",
        -10.47665004628094
      ],
      [
        "regard",
        -10.4766656620159
      ],
      [
        "storage",
        -10.477001231104893
      ],
      [
        "beg",
        -10.478534192387176
      ],
      [
        "earn",
        -10.478695065819661
      ],
      [
        "Cat",
        -10.479566075972048
      ],
      [
        "eye",
        -10.481607552030034
      ],
      [
        "Min",
        -10.481951725853184
      ],
      [
        "improv",
        -10.48226204291921
      ],
      [
        "800",
        -10.48230050575858
      ],
      [
        "Request",
        -10.482877349361594
      ],
      [
        "Second",
        -10.482899988795287
      ],
      [
        "pool",
        -10.48290043902146
      ],
      [
        "modify",
        -10.482914779168532
      ],
      [
        "assertEqual",
        -10.482917321463722
      ],
      [
        "max_sum",
        -10.48377451288708
      ],
      [
        "}}",
        -10.484801777943149
      ],
      [
        "last_name",
        -10.486714786285244
      ],
      [
        "BA",
        -10.486804980331183
      ],
      [
        "Head",
        -10.48897792371241
      ],
      [
        "enhance",
        -10.489131854331204
      ],
      [
        "High",
        -10.48916425235621
      ],
      [
        "catalyst",
        -10.48918929302196
      ],
      [
        "Palanti",
        -10.489189393195968
      ],
      [
        "impressive",
        -10.48920812579856
      ],
      [
        "null",
        -10.489212800792425
      ],
      [
        "cancer",
        -10.489256067491304
      ],
      [
        "Recent",
        -10.489279644068464
      ],
      [
        "cover",
        -10.48934019089032
      ],
      [
        "administration",
        -10.489393181132046
      ],
      [
        "integration",
        -10.489624116082668
      ],
      [
        "arr1",
        -10.490207410616522
      ],
      [
        "CD",
        -10.49045077779466
      ],
      [
        "webpage",
        -10.491677323251865
      ],
      [
        "Mo",
        -10.492056366668717
      ],
      [
        "rices",
        -10.49247465534657
      ],
      [
        "targets",
        -10.494094743437874
      ],
      [
        "econom",
        -10.494199650854878
      ],
      [
        "UM",
        -10.49447090833609
      ],
      [
        "84",
        -10.494476760910173
      ],
      [
        "Run",
        -10.494776526471343
      ],
      [
        "Growth",
        -10.495519777198702
      ],
      [
        "internal",
        -10.49554981807153
      ],
      [
        "manager",
        -10.495587655544762
      ],
      [
        "versu",
        -10.49590075862871
      ],
      [
        "subprocess",
        -10.49705879837861
      ],
      [
        "Earl",
        -10.498041346783456
      ],
      [
        "combined",
        -10.499243232677951
      ],
      [
        "insight",
        -10.499405884358564
      ],
      [
        "mod",
        -10.501498345038069
      ],
      [
        "deploy",
        -10.501762499450932
      ],
      [
        "Guru",
        -10.501955389746605
      ],
      [
        "dimensional",
        -10.5021806402911
      ],
      [
        "RO",
        -10.502235075065123
      ],
      [
        "OUT",
        -10.502738107847996
      ],
      [
        "component",
        -10.503020145423722
      ],
      [
        "denominat",
        -10.503256078967237
      ],
      [
        "BD",
        -10.503310162639675
      ],
      [
        "cheap",
        -10.503353655366704
      ],
      [
        "NOT",
        -10.503714514045875
      ],
      [
        "lone",
        -10.503744627376095
      ],
      [
        "ptr",
        -10.504130993983738
      ],
      [
        "construct",
        -10.505099840270098
      ],
      [
        "dates",
        -10.505432703223796
      ],
      [
        "ge",
        -10.505502276724258
      ],
      [
        "outputs",
        -10.507141564206073
      ],
      [
        "ftime",
        -10.508072092640864
      ],
      [
        "Vector",
        -10.508240686318732
      ],
      [
        "Message",
        -10.50829808214781
      ],
      [
        "David",
        -10.508397817594599
      ],
      [
        "master",
        -10.50887467429531
      ],
      [
        "powerfu",
        -10.509217651839776
      ],
      [
        "Service",
        -10.50978490515504
      ],
      [
        "hot",
        -10.510470811800213
      ],
      [
        "_values",
        -10.51048524704687
      ],
      [
        "_object",
        -10.510949680507288
      ],
      [
        "phone_number",
        -10.512561116838999
      ],
      [
        "frequencies",
        -10.513432952947536
      ],
      [
        "updated",
        -10.51401091448725
      ],
      [
        "£",
        -10.514749646836368
      ],
      [
        "Django",
        -10.514749933051522
      ],
      [
        "Employee",
        -10.514750626327968
      ],
      [
        "Case",
        -10.514844481898521
      ],
      [
        "82",
        -10.515319979047966
      ],
      [
        "Network",
        -10.515666733333376
      ],
      [
        "Creat",
        -10.517982297977563
      ],
      [
        "Dow",
        -10.519424091978554
      ],
      [
        "depend",
        -10.52071084601392
      ],
      [
        "starts",
        -10.521039006202837
      ],
      [
        "Fit",
        -10.521093330165975
      ],
      [
        "Fund",
        -10.521287669734512
      ],
      [
        "NFL",
        -10.521441030263976
      ],
      [
        "ill",
        -10.521518749376902
      ],
      [
        "Line",
        -10.521659178550632
      ],
      [
        "loan",
        -10.521880846141055
      ],
      [
        "41",
        -10.52261668532669
      ],
      [
        "smart",
        -10.523588579761025
      ],
      [
        "Word",
        -10.523838465250945
      ],
      [
        "_numbers",
        -10.524231326146197
      ],
      [
        "den",
        -10.524956272087929
      ],
      [
        "_max",
        -10.525544266349293
      ],
      [
        "dev",
        -10.526512490906454
      ],
      [
        "_map",
        -10.527099845806879
      ],
      [
        "influence",
        -10.52777910105678
      ],
      [
        "expenditure",
        -10.527779101118565
      ],
      [
        "visibility",
        -10.527779103450875
      ],
      [
        "daily",
        -10.52790377776553
      ],
      [
        "Intensity",
        -10.527964324104103
      ],
      [
        "access_token",
        -10.528827121242504
      ],
      [
        "Als",
        -10.529053917708307
      ],
      [
        "reverse_string",
        -10.529606822371287
      ],
      [
        "250",
        -10.531190753207284
      ],
      [
        "x_",
        -10.532392418445417
      ],
      [
        "WHE",
        -10.532399989828843
      ],
      [
        "_model",
        -10.532529097204687
      ],
      [
        "izing",
        -10.532901990294594
      ],
      [
        "google",
        -10.534358061912688
      ],
      [
        "competitor",
        -10.534358614425143
      ],
      [
        "Sample",
        -10.534359605849932
      ],
      [
        "human",
        -10.53436759215375
      ],
      [
        "lost",
        -10.534373250241778
      ],
      [
        "phase",
        -10.536360691957832
      ],
      [
        "War",
        -10.536378206626821
      ],
      [
        "Store",
        -10.537158997529334
      ],
      [
        "backend",
        -10.539730241106366
      ],
      [
        "require",
        -10.540150993988092
      ],
      [
        "256",
        -10.54019272654833
      ],
      [
        "spot",
        -10.540968269768397
      ],
      [
        "militar",
        -10.541002776993484
      ],
      [
        "Revenue",
        -10.541016958560789
      ],
      [
        "Rate",
        -10.541597932006805
      ],
      [
        "AP",
        -10.541796176508159
      ],
      [
        "ways",
        -10.541967751104798
      ],
      [
        "exception",
        -10.542034605482854
      ],
      [
        "rest",
        -10.54210102896776
      ],
      [
        "events",
        -10.542126563628027
      ],
      [
        "utc",
        -10.542171140876802
      ],
      [
        "feed",
        -10.542375534464341
      ],
      [
        "\"{",
        -10.542416088688775
      ],
      [
        "pent",
        -10.542558250610632
      ],
      [
        "itting",
        -10.543653212036158
      ],
      [
        "tion",
        -10.544791335523591
      ],
      [
        "quote",
        -10.545010796835498
      ],
      [
        "generator",
        -10.546955568015392
      ],
      [
        "smtp",
        -10.5476589191
      ],
      [
        "robotic",
        -10.547660430694528
      ],
      [
        "Graph",
        -10.547698932555356
      ],
      [
        "Reverse",
        -10.547699674690257
      ],
      [
        "national",
        -10.547813712636977
      ],
      [
        "coefficient",
        -10.547867304477471
      ],
      [
        "'][",
        -10.548322747353719
      ],
      [
        "iteration",
        -10.548542661189614
      ],
      [
        "spec",
        -10.551378137667221
      ],
      [
        "trans",
        -10.551451743449029
      ],
      [
        "unsorted",
        -10.551637719006246
      ],
      [
        "law",
        -10.552923038413457
      ],
      [
        "most_common",
        -10.553552356062246
      ],
      [
        "Evaluate",
        -10.554358871807565
      ],
      [
        "president",
        -10.55436055640503
      ],
      [
        "signed",
        -10.554455387559985
      ],
      [
        "chipmaker",
        -10.55483279312921
      ],
      [
        "naive",
        -10.554844313580636
      ],
      [
        "Some",
        -10.554974502532357
      ],
      [
        "container",
        -10.555581150143713
      ],
      [
        "substrings",
        -10.556537683439576
      ],
      [
        "Air",
        -10.556682275879673
      ],
      [
        "que",
        -10.556853061682457
      ],
      [
        "classify_",
        -10.557335022097163
      ],
      [
        "extract_",
        -10.558003422845509
      ],
      [
        "USD",
        -10.559738990993107
      ],
      [
        "128",
        -10.559748492919535
      ],
      [
        "sort_list",
        -10.560631309777818
      ],
      [
        "finance",
        -10.560714729507247
      ],
      [
        "Random",
        -10.560763792122582
      ],
      [
        "TV",
        -10.560959833933097
      ],
      [
        "Binary",
        -10.561019965426212
      ],
      [
        "optimis",
        -10.561073918758325
      ],
      [
        "Standard",
        -10.561115491639553
      ],
      [
        "Lock",
        -10.561125210255346
      ],
      [
        "Insider",
        -10.561128527439497
      ],
      [
        "consistent",
        -10.561194865643817
      ],
      [
        "nine",
        -10.561246319557041
      ],
      [
        "optimization",
        -10.561267014790598
      ],
      [
        "_distance",
        -10.56284612958128
      ],
      [
        "modules",
        -10.563127626065471
      ],
      [
        "_message",
        -10.564668963992544
      ],
      [
        "reference",
        -10.566074038403627
      ],
      [
        "template",
        -10.566269096646437
      ],
      [
        "Hold",
        -10.566582468415039
      ],
      [
        "calculates",
        -10.567423769923568
      ],
      [
        "Advance",
        -10.567918138046773
      ],
      [
        "immediate",
        -10.568293181955834
      ],
      [
        "travel",
        -10.56844666990501
      ],
      [
        "_token",
        -10.568536017116461
      ],
      [
        "rank",
        -10.5690782456398
      ],
      [
        "ground",
        -10.569850965850161
      ],
      [
        "_label",
        -10.569891550564165
      ],
      [
        "spend",
        -10.571237412215634
      ],
      [
        "600",
        -10.5713314637784
      ],
      [
        "filter_",
        -10.572327630073794
      ],
      [
        "tra",
        -10.572387322957958
      ],
      [
        "2000",
        -10.574390339153378
      ],
      [
        "INSERT",
        -10.574767439865717
      ],
      [
        "settlement",
        -10.574804327353846
      ],
      [
        "_tag",
        -10.574909055939298
      ],
      [
        "GPT",
        -10.57496674925651
      ],
      [
        "commitment",
        -10.575043489052268
      ],
      [
        "bound",
        -10.575592106953419
      ],
      [
        "Arg",
        -10.575723248665838
      ],
      [
        "AND",
        -10.577990679777376
      ],
      [
        "Tuple",
        -10.578677774022818
      ],
      [
        "filtered",
        -10.579766577478553
      ],
      [
        "etting",
        -10.580510986887184
      ],
      [
        "gradient",
        -10.58069697705528
      ],
      [
        "technologi",
        -10.581639369602168
      ],
      [
        "Magnific",
        -10.58166399405855
      ],
      [
        "fleet",
        -10.581664328540368
      ],
      [
        "destination",
        -10.581673131301304
      ],
      [
        "bubble_sort",
        -10.58170608942373
      ],
      [
        "tar",
        -10.581759793197282
      ],
      [
        "Credit",
        -10.582402432729115
      ],
      [
        "new_string",
        -10.584089929544328
      ],
      [
        "workload",
        -10.585114923005435
      ],
      [
        "requires",
        -10.585262065002262
      ],
      [
        "metadata",
        -10.585528558775476
      ],
      [
        "delay",
        -10.58608696075327
      ],
      [
        "shortest",
        -10.58812380379122
      ],
      [
        "Maximum",
        -10.588608453243076
      ],
      [
        "typical",
        -10.588616863072604
      ],
      [
        "fruit",
        -10.588644742884856
      ],
      [
        "Sky",
        -10.58888026966599
      ],
      [
        "TSMC",
        -10.588979212249317
      ],
      [
        "compar",
        -10.590048725905913
      ],
      [
        "longest_word",
        -10.590242421764646
      ],
      [
        "ook",
        -10.590530127332016
      ],
      [
        "AN",
        -10.59059674884754
      ],
      [
        "anticipate",
        -10.590774939161493
      ],
      [
        "Don",
        -10.592668859550585
      ],
      [
        "achieve",
        -10.592984665364558
      ],
      [
        "substantial",
        -10.595601437149138
      ],
      [
        "regular",
        -10.595607046599614
      ],
      [
        "Berk",
        -10.595628237500211
      ],
      [
        "serve",
        -10.59678911625077
      ],
      [
        "admin",
        -10.596978832903904
      ],
      [
        "members",
        -10.597924792530147
      ],
      [
        "insider",
        -10.598135915192032
      ],
      [
        "rules",
        -10.598674075360009
      ],
      [
        "(^",
        -10.599422847560364
      ],
      [
        "pace",
        -10.599426687629263
      ],
      [
        "AC",
        -10.599507798968325
      ],
      [
        "facilit",
        -10.600458024334012
      ],
      [
        "ext",
        -10.600872472613341
      ],
      [
        "encoded_",
        -10.601158710988475
      ],
      [
        "White",
        -10.60220986947575
      ],
      [
        "surprise",
        -10.602643708290822
      ],
      [
        "Click",
        -10.602644304649557
      ],
      [
        "international",
        -10.602719964606324
      ],
      [
        "Just",
        -10.602808499866224
      ],
      [
        "receive",
        -10.603003239135637
      ],
      [
        "plus",
        -10.603046235328062
      ],
      [
        "constraint",
        -10.603310279200633
      ],
      [
        "duration",
        -10.60345683604189
      ],
      [
        "Chart",
        -10.603466726656237
      ],
      [
        "member",
        -10.603871806046577
      ],
      [
        "GI",
        -10.605630722624849
      ],
      [
        "ING",
        -10.605688953553962
      ],
      [
        "bytes",
        -10.605844868737
      ],
      [
        "Move",
        -10.606162729465584
      ],
      [
        "ub",
        -10.606644197066256
      ],
      [
        "}'",
        -10.606677316027206
      ],
      [
        "Seven",
        -10.606727158716769
      ],
      [
        "Ju",
        -10.60747152999826
      ],
      [
        "wait",
        -10.607860358212456
      ],
      [
        "fib",
        -10.608341352720888
      ],
      [
        "Invest",
        -10.608464793382511
      ],
      [
        "Hi",
        -10.60897756087229
      ],
      [
        "(\"%",
        -10.609523292817899
      ],
      [
        "Should",
        -10.60973608669575
      ],
      [
        "scrap",
        -10.610750543673367
      ],
      [
        "recover",
        -10.61134279585854
      ],
      [
        "cities",
        -10.611537461708618
      ],
      [
        "titles",
        -10.611587402975385
      ],
      [
        "Yo",
        -10.614825372972437
      ],
      [
        "conf",
        -10.616192602415857
      ],
      [
        "artis",
        -10.616455774264491
      ],
      [
        "BC",
        -10.61665345166962
      ],
      [
        "verbose",
        -10.616671299890672
      ],
      [
        "Content",
        -10.61681232724999
      ],
      [
        "Buffet",
        -10.616878751316275
      ],
      [
        "Machine",
        -10.616878806387062
      ],
      [
        "Business",
        -10.616878937158516
      ],
      [
        "written",
        -10.616886471928868
      ],
      [
        "trust",
        -10.616967357974376
      ],
      [
        "paper",
        -10.617354366293934
      ],
      [
        "03",
        -10.61787651088307
      ],
      [
        "reset",
        -10.617983396133074
      ],
      [
        "finding",
        -10.62014945862132
      ],
      [
        "sublist",
        -10.620415222650673
      ],
      [
        "OF",
        -10.620498338650595
      ],
      [
        "_secret",
        -10.620944994972234
      ],
      [
        "mount",
        -10.621295633699681
      ],
      [
        "get_key",
        -10.621320059350253
      ],
      [
        "comments",
        -10.621815074837667
      ],
      [
        "iris",
        -10.62186754810865
      ],
      [
        "keywords",
        -10.622224928568262
      ],
      [
        "='')",
        -10.623776877816146
      ],
      [
        "Info",
        -10.623800225438945
      ],
      [
        "external",
        -10.624073001323126
      ],
      [
        "bayes",
        -10.624101264531534
      ],
      [
        "_char",
        -10.624839009003736
      ],
      [
        "representation",
        -10.625029184035093
      ],
      [
        "bad",
        -10.625041020819534
      ],
      [
        "shopping",
        -10.625363842125893
      ],
      [
        "matching",
        -10.627377064359283
      ],
      [
        "_sequence",
        -10.627734649673332
      ],
      [
        "Replace",
        -10.627826332114038
      ],
      [
        "comp",
        -10.628304913691899
      ],
      [
        "has_",
        -10.628632866991222
      ],
      [
        "purpose",
        -10.631319460417643
      ],
      [
        "gross",
        -10.631330647083509
      ],
      [
        "insert_",
        -10.631453607892288
      ],
      [
        "institutional",
        -10.632605045938227
      ],
      [
        "Yes",
        -10.632652103934735
      ],
      [
        "blog",
        -10.633059469995345
      ],
      [
        "meet",
        -10.63316070535192
      ],
      [
        "monthly",
        -10.63385920474202
      ],
      [
        "10000",
        -10.63405262228675
      ],
      [
        "temp_",
        -10.63450088287017
      ],
      [
        "corporate",
        -10.63453593807786
      ],
      [
        "_mean",
        -10.63532117590113
      ],
      [
        "register",
        -10.637187618444544
      ],
      [
        "simply",
        -10.637279245781881
      ],
      [
        "TO",
        -10.637454304403263
      ],
      [
        "hope",
        -10.637833850442679
      ],
      [
        "moment",
        -10.638450760873752
      ],
      [
        "Area",
        -10.638513750104767
      ],
      [
        "ice",
        -10.6385254430303
      ],
      [
        "establish",
        -10.638618637893174
      ],
      [
        "essential",
        -10.638619263053535
      ],
      [
        "countries",
        -10.638647403656472
      ],
      [
        "Smith",
        -10.63882589863697
      ],
      [
        "lowest",
        -10.639143965312577
      ],
      [
        "Plane",
        -10.639779778454724
      ],
      [
        "showing",
        -10.639902404545008
      ],
      [
        "git",
        -10.640182435878664
      ],
      [
        "validate",
        -10.64066737872787
      ],
      [
        "whole",
        -10.641252698736288
      ],
      [
        "sharp",
        -10.642988338974707
      ],
      [
        "fac",
        -10.643132679964364
      ],
      [
        "_characters",
        -10.643137385031746
      ],
      [
        "headline",
        -10.643279826316355
      ],
      [
        "ities",
        -10.644803662797322
      ],
      [
        "fresh",
        -10.645102863777328
      ],
      [
        "subscription",
        -10.64597261623723
      ],
      [
        "alternative",
        -10.645974815568549
      ],
      [
        "configuration",
        -10.646059482402542
      ],
      [
        "Thread",
        -10.646357284883944
      ],
      [
        "FOR",
        -10.646428920312792
      ],
      [
        "greeting",
        -10.647255613592034
      ],
      [
        "min_val",
        -10.647401942571175
      ],
      [
        "Kra",
        -10.648045224345417
      ],
      [
        "trailing",
        -10.6480542109103
      ],
      [
        "losse",
        -10.648685733463225
      ],
      [
        "word_list",
        -10.650112849009286
      ],
      [
        "\\\\",
        -10.652316742652825
      ],
      [
        "pdf",
        -10.652562199020124
      ],
      [
        "orient",
        -10.653248936341333
      ],
      [
        "€",
        -10.653378986423245
      ],
      [
        "neutral",
        -10.653378986455193
      ],
      [
        "mobile",
        -10.653379867714982
      ],
      [
        "changing",
        -10.653379954783052
      ],
      [
        "console",
        -10.653460613352443
      ],
      [
        "Bob",
        -10.653494267364103
      ],
      [
        "Look",
        -10.653796176706003
      ],
      [
        ":\\",
        -10.653912940317838
      ],
      [
        "Jim",
        -10.654132929486337
      ],
      [
        "genre",
        -10.6551457120766
      ],
      [
        "Linked",
        -10.655178653561219
      ],
      [
        "probabl",
        -10.655459122165329
      ],
      [
        "spaces",
        -10.656534930295397
      ],
      [
        "train_",
        -10.656667228740037
      ],
      [
        "001",
        -10.656829347821084
      ],
      [
        "miss",
        -10.656960097511226
      ],
      [
        "ready",
        -10.657104346819427
      ],
      [
        "Parser",
        -10.658041105102892
      ],
      [
        "taken",
        -10.659082578578962
      ],
      [
        "rote",
        -10.659445586977645
      ],
      [
        "Score",
        -10.659936322664848
      ],
      [
        "collect",
        -10.660445901599523
      ],
      [
        "usual",
        -10.660625895392755
      ],
      [
        "_helper",
        -10.660708281297495
      ],
      [
        "entered",
        -10.660710166047721
      ],
      [
        "equivalent",
        -10.660841699270025
      ],
      [
        "calendar",
        -10.660841709059454
      ],
      [
        "Power",
        -10.660842251295296
      ],
      [
        "Client",
        -10.660842268787928
      ],
      [
        "Project",
        -10.660842657360739
      ],
      [
        "':[",
        -10.660880332754981
      ],
      [
        "Interest",
        -10.660884682910812
      ],
      [
        "easy",
        -10.661250356336772
      ],
      [
        "coverage",
        -10.661436329838526
      ],
      [
        "];",
        -10.661520134341792
      ],
      [
        "exchange",
        -10.661829490391337
      ],
      [
        "didn",
        -10.66189642193911
      ],
      [
        "ET",
        -10.662123283891392
      ],
      [
        "reiterate",
        -10.662402189600229
      ],
      [
        "Mark",
        -10.662643486577245
      ],
      [
        "Via",
        -10.66266785298154
      ],
      [
        "H200",
        -10.662766124897932
      ],
      [
        "binary_",
        -10.663193032161438
      ],
      [
        "Take",
        -10.663408005390613
      ],
      [
        "thank",
        -10.663519835563726
      ],
      [
        "imply",
        -10.663917078641408
      ],
      [
        "attenti",
        -10.664496395543903
      ],
      [
        "NO",
        -10.664815986386023
      ],
      [
        "CA",
        -10.665132933215236
      ],
      [
        "Col",
        -10.666350204235837
      ],
      [
        "toge",
        -10.666935060891863
      ],
      [
        "dimension",
        -10.668014673662249
      ],
      [
        "ebius",
        -10.668360833973935
      ],
      [
        "SVC",
        -10.668376189816595
      ],
      [
        "Big",
        -10.668379608050419
      ],
      [
        "central",
        -10.668401915054304
      ],
      [
        "submit",
        -10.668483890426733
      ],
      [
        "Select",
        -10.66878735703207
      ],
      [
        "tri",
        -10.669413081023837
      ],
      [
        "word_freq",
        -10.669521762343933
      ],
      [
        "ave",
        -10.66986664794786
      ],
      [
        "efficienc",
        -10.6699195045116
      ],
      [
        "intent",
        -10.672108494000291
      ],
      [
        "ylabel",
        -10.672584440791551
      ],
      [
        "make_",
        -10.672792181347202
      ],
      [
        "ang",
        -10.674018531621394
      ],
      [
        "meeting",
        -10.67406284941375
      ],
      [
        "mind",
        -10.674210774685758
      ],
      [
        "71",
        -10.674315090982894
      ],
      [
        "51",
        -10.674372872265133
      ],
      [
        "repeat",
        -10.675269565747566
      ],
      [
        "focuse",
        -10.675843700252255
      ],
      [
        "Federal",
        -10.675936445329993
      ],
      [
        "Donald",
        -10.675937871736828
      ],
      [
        "budget",
        -10.675939470659221
      ],
      [
        "closest",
        -10.676048943619056
      ],
      [
        "elve",
        -10.676916908807563
      ],
      [
        "soon",
        -10.678342732745044
      ],
      [
        "May",
        -10.678409385596957
      ],
      [
        "ble",
        -10.678651959184311
      ],
      [
        "inner",
        -10.678659444582497
      ],
      [
        "bill",
        -10.67928068479662
      ],
      [
        "Found",
        -10.679730360761738
      ],
      [
        "primar",
        -10.680067170911816
      ],
      [
        "assume",
        -10.68022495873188
      ],
      [
        "fibonacci_",
        -10.680549472342136
      ],
      [
        "launche",
        -10.680606876590433
      ],
      [
        "priced",
        -10.681332369617127
      ],
      [
        "rock",
        -10.68336663307032
      ],
      [
        "alifornia",
        -10.683569816656346
      ],
      [
        "batch_size",
        -10.683610824975345
      ],
      [
        "partition",
        -10.683754377890494
      ],
      [
        "improvement",
        -10.68389747947208
      ],
      [
        "sigm",
        -10.684034713464237
      ],
      [
        "base64",
        -10.684440026526254
      ],
      [
        "dance",
        -10.68509876465661
      ],
      [
        "coordinates",
        -10.685553816081388
      ],
      [
        "eval",
        -10.685735008838966
      ],
      [
        "distributed",
        -10.686335513426592
      ],
      [
        "generate_random_",
        -10.687116892026726
      ],
      [
        "gold",
        -10.687458560971542
      ],
      [
        "offset",
        -10.688895378290052
      ],
      [
        "mix",
        -10.689307408953354
      ],
      [
        "never",
        -10.689556378512249
      ],
      [
        "food",
        -10.690270196260213
      ],
      [
        "cautious",
        -10.69126212383422
      ],
      [
        "Vertex",
        -10.691262216700144
      ],
      [
        "morning",
        -10.691264227898955
      ],
      [
        "Programming",
        -10.69130736545478
      ],
      [
        "treatment",
        -10.69134868575154
      ],
      [
        "Have",
        -10.691642762575938
      ],
      [
        "],[",
        -10.692372662894718
      ],
      [
        "Our",
        -10.692677765865476
      ],
      [
        "leave",
        -10.692825144840349
      ],
      [
        "tokenizer",
        -10.69484551678365
      ],
      [
        "Roc",
        -10.695296947461774
      ],
      [
        "Show",
        -10.695959884042377
      ],
      [
        "useful",
        -10.696001543400456
      ],
      [
        "2019",
        -10.696129785065754
      ],
      [
        "_obj",
        -10.69702525006746
      ],
      [
        "mean_",
        -10.697169429151208
      ],
      [
        "leverage",
        -10.697835654925791
      ],
      [
        "abcd",
        -10.697895193220152
      ],
      [
        "hat",
        -10.698400239693179
      ],
      [
        "merging",
        -10.69860615640819
      ],
      [
        "optimized",
        -10.698836747068746
      ],
      [
        "relevant",
        -10.699014061513124
      ],
      [
        "quick_sort",
        -10.699155517701914
      ],
      [
        "fig",
        -10.699166780210644
      ],
      [
        "ANY",
        -10.699395169783013
      ],
      [
        "Compare",
        -10.699889089657304
      ],
      [
        "provid",
        -10.699935304962171
      ],
      [
        "remote",
        -10.700232454511932
      ],
      [
        "Sub",
        -10.700833368239586
      ],
      [
        "}]",
        -10.70135483932489
      ],
      [
        "greed",
        -10.703311905793267
      ],
      [
        "VI",
        -10.703463699143107
      ],
      [
        "sequences",
        -10.704576405744952
      ],
      [
        "worker",
        -10.704925861038184
      ],
      [
        "HTTP",
        -10.706779999131317
      ],
      [
        "speech",
        -10.706826565087514
      ],
      [
        "quiet",
        -10.706833179577496
      ],
      [
        "outside",
        -10.70768968266312
      ],
      [
        "remov",
        -10.707874968868435
      ],
      [
        "tab",
        -10.709112985327367
      ],
      [
        "ticket",
        -10.71007998279968
      ],
      [
        "San",
        -10.710458614992508
      ],
      [
        "prop",
        -10.710803953068588
      ],
      [
        "Swap",
        -10.711250262082135
      ],
      [
        "91",
        -10.712700089884992
      ],
      [
        "profitabl",
        -10.712960905657013
      ],
      [
        "him",
        -10.713540592965746
      ],
      [
        "consumption",
        -10.714700577224669
      ],
      [
        "candidate",
        -10.714703500678976
      ],
      [
        "REST",
        -10.714778556852703
      ],
      [
        "_password",
        -10.71496530758155
      ],
      [
        "orders",
        -10.71522800252562
      ],
      [
        "_with_",
        -10.715336124443482
      ],
      [
        "Task",
        -10.71551785649826
      ],
      [
        "exceed",
        -10.717111193710508
      ],
      [
        "mixed",
        -10.717542473080783
      ],
      [
        "issues",
        -10.717730971009487
      ],
      [
        "vote",
        -10.718457555658103
      ],
      [
        "valu",
        -10.719637823401822
      ],
      [
        "120",
        -10.720077938160038
      ],
      [
        "date_",
        -10.720983872377449
      ],
      [
        "blocks",
        -10.721491077489894
      ],
      [
        "Note",
        -10.721653463960457
      ],
      [
        "perspective",
        -10.722637084819182
      ],
      [
        "rotate",
        -10.722637288724648
      ],
      [
        "john",
        -10.722637743465404
      ],
      [
        "transition",
        -10.722637846465368
      ],
      [
        "extension",
        -10.722826160133163
      ],
      [
        "cutt",
        -10.722835239665203
      ],
      [
        "Alice",
        -10.722899446018356
      ],
      [
        "legal",
        -10.723147268638591
      ],
      [
        "cast",
        -10.723172083794678
      ],
      [
        "peak",
        -10.723246492245394
      ],
      [
        "former",
        -10.725141679564516
      ],
      [
        "anagram",
        -10.725485776173006
      ],
      [
        "MT",
        -10.72585937312033
      ],
      [
        "arm",
        -10.726190537926122
      ],
      [
        "AR",
        -10.726784067721628
      ],
      [
        "Gen",
        -10.726910589018544
      ],
      [
        "ensure",
        -10.727853189640328
      ],
      [
        "reads",
        -10.727927309556105
      ],
      [
        "hedge",
        -10.728025783973779
      ],
      [
        "\"--",
        -10.72827488302448
      ],
      [
        "Tk",
        -10.72894030560867
      ],
      [
        "erator",
        -10.72918607477142
      ],
      [
        "virtual",
        -10.730568670792183
      ],
      [
        "DCF",
        -10.730659113840641
      ],
      [
        "uncertainty",
        -10.730686251220309
      ],
      [
        "Welcom",
        -10.731552237039521
      ],
      [
        "secret",
        -10.733080521332486
      ],
      [
        "bra",
        -10.73356494851215
      ],
      [
        "padding",
        -10.734473345786585
      ],
      [
        "manufacturer",
        -10.735471972169936
      ],
      [
        "explain",
        -10.735945556870515
      ],
      [
        "left_",
        -10.736094683599896
      ],
      [
        "last_",
        -10.73617840467171
      ],
      [
        "processor",
        -10.73650027444922
      ],
      [
        "encoded",
        -10.736805815512938
      ],
      [
        "She",
        -10.737488035581649
      ],
      [
        "ted",
        -10.73828457890339
      ],
      [
        "Operation",
        -10.738340542194024
      ],
      [
        "dic",
        -10.738406566703638
      ],
      [
        "nthropi",
        -10.738701553826829
      ],
      [
        "venture",
        -10.738702003362063
      ],
      [
        "science",
        -10.73871456514938
      ],
      [
        "DecisionTree",
        -10.738738895528458
      ],
      [
        "perfect",
        -10.738746535328284
      ],
      [
        "Display",
        -10.738965299901324
      ],
      [
        "greatest",
        -10.739089738019278
      ],
      [
        "internet",
        -10.739312738050414
      ],
      [
        "_items",
        -10.740873657379565
      ],
      [
        "Form",
        -10.741087928902916
      ],
      [
        "_elements",
        -10.741313142473341
      ],
      [
        "announc",
        -10.741369268236838
      ],
      [
        "twee",
        -10.742995302887646
      ],
      [
        "data_list",
        -10.743339571943253
      ],
      [
        "ense",
        -10.743394103286837
      ],
      [
        "ramp",
        -10.744769310673892
      ],
      [
        "evolv",
        -10.744878448818303
      ],
      [
        "dirname",
        -10.745138087706875
      ],
      [
        "Invalid",
        -10.745510785473815
      ],
      [
        "‍",
        -10.746831682136097
      ],
      [
        "inventory",
        -10.74683274222198
      ],
      [
        "London",
        -10.7468354448426
      ],
      [
        "Modify",
        -10.746836234349544
      ],
      [
        "ignore",
        -10.746894760102023
      ],
      [
        "transport",
        -10.746928595914824
      ],
      [
        "ccuracy",
        -10.746946524669783
      ],
      [
        "_field",
        -10.749284816454658
      ],
      [
        "express",
        -10.749558298733838
      ],
      [
        "sudo",
        -10.750138045457646
      ],
      [
        "est_key",
        -10.750388592695444
      ],
      [
        "Asia",
        -10.750837766299394
      ],
      [
        "lang",
        -10.750907580661273
      ],
      [
        "inside",
        -10.75117542914041
      ],
      [
        "ach",
        -10.751308382059543
      ],
      [
        "reliabl",
        -10.75183231653223
      ],
      [
        "combine",
        -10.751983578310117
      ],
      [
        "trial",
        -10.752788733766122
      ],
      [
        "scaler",
        -10.753224541063698
      ],
      [
        "w_a",
        -10.753375373179205
      ],
      [
        "points_",
        -10.754936424014293
      ],
      [
        "ultimate",
        -10.75502840352727
      ],
      [
        "familiar",
        -10.75502841010956
      ],
      [
        "Square",
        -10.75503015253879
      ],
      [
        "Copyright",
        -10.755172586188433
      ],
      [
        "avoid",
        -10.75587426711856
      ],
      [
        "salesman",
        -10.755917408418815
      ],
      [
        "Email",
        -10.75636211504273
      ],
      [
        "Palindrome",
        -10.75669000589333
      ],
      [
        "writer",
        -10.75735662427264
      ],
      [
        "went",
        -10.757792764083124
      ],
[...]
