{
  "version": "1.0",
  "truncation": null,
  "padding": null,
  "added_tokens": [
    {
      "id": 0,
      "content": "[PAD]",
      "single_word": false,
      "lstrip": false,
      "rstrip": false,
      "normalized": false,
      "special": true
    },
    {
      "id": 1,
      "content": "[UNK]",
      "single_word": false,
      "lstrip": false,
      "rstrip": false,
      "normalized": false,
      "special": true
    },
    {
      "id": 2,
      "content": "<EOS>",
      "single_word": false,
      "lstrip": false,
      "rstrip": false,
      "normalized": false,
      "special": true
    }
  ],
  "normalizer": null,
  "pre_tokenizer": {
    "type": "Whitespace"
  },
  "post_processor": null,
  "decoder": null,
  "model": {
    "type": "Unigram",
    "unk_id": null,
    "vocab": [
      [
        "[PAD]",
        0.0
      ],
      [
        "[UNK]",
        0.0
      ],
      [
        "<EOS>",
        0.0
      ],
      [
        ",",
        -3.126885826508669
      ],
      [
        ".",
        -3.1649287568241
      ],
      [
        "s",
        -3.1903258135365036
      ],
      [
        "the",
        -3.2326538927819293
      ],
      [
        "i",
        -3.5456695493053303
      ],
      [
        "a",
        -3.805480950572594
      ],
      [
        "t",
        -3.824951001002276
      ],
      [
        "(",
        -3.82691107163744
      ],
      [
        "o",
        -3.9223693123960643
      ],
      [
        ")",
        -3.943160719150576
      ],
      [
        "1",
        -3.970199346225691
      ],
      [
        "e",
        -4.08427238380046
      ],
      [
        "=",
        -4.253650159498029
      ],
      [
        "2",
        -4.2769086581003855
      ],
      [
        "-",
        -4.314405453533322
      ],
      [
        "of",
        -4.453361219621833
      ],
      [
        "n",
        -4.456351293683721
      ],
      [
        ":",
        -4.502663432937808
      ],
      [
        "in",
        -4.6262254689508495
      ],
      [
        "'",
        -4.630460795743705
      ],
      [
        "and",
        -4.664442508014069
      ],
      [
        "b",
        -4.690759835962357
      ],
      [
        "+",
        -4.731490674300218
      ],
      [
        "0",
        -4.779539872281809
      ],
      [
        "@",
        -4.818603800341915
      ],
      [
        "3",
        -4.941707967585572
      ],
      [
        "for",
        -4.959757513794187
      ],
      [
        "x",
        -5.07840726803509
      ],
      [
        "that",
        -5.104304324395933
      ],
      [
        "m",
        -5.196959348749267
      ],
      [
        "f",
        -5.20039388780128
      ],
      [
        "]",
        -5.271889550013817
      ],
      [
        "[",
        -5.285392616418168
      ],
      [
        "r",
        -5.357565952168471
      ],
      [
        "So",
        -5.398392599654027
      ],
      [
        "w",
        -5.460784885889787
      ],
      [
        "4",
        -5.4626685286598615
      ],
      [
        "are",
        -5.482177737892318
      ],
      [
        "d",
        -5.50404676055064
      ],
      [
        "can",
        -5.564216469192132
      ],
      [
        "c",
        -5.5901819824619885
      ],
      [
        "k",
        -5.601883605384764
      ],
      [
        "y",
        -5.614643074217334
      ],
      [
        "this",
        -5.648847376609808
      ],
      [
        "each",
        -5.686584309605351
      ],
      [
        "/",
        -5.697265186421809
      ],
      [
        "_",
        -5.69884458695682
      ],
      [
        "\\",
        -5.710073591319464
      ],
      [
        "*",
        -5.726124264045417
      ],
      [
        "5",
        -5.739953424559346
      ],
      [
        "with",
        -5.767262372726481
      ],
      [
        "Wait",
        -5.821972634309457
      ],
      [
        "The",
        -5.850264282372422
      ],
      [
        "}",
        -5.879218289814858
      ],
      [
        "But",
        -5.89540652896277
      ],
      [
        "p",
        -5.9125910815845835
      ],
      [
        "{",
        -5.92190779116407
      ],
      [
        "but",
        -5.930071541997425
      ],
      [
        "by",
        -5.976025020302526
      ],
      [
        "all",
        -5.9977510675328425
      ],
      [
        "from",
        -6.030976153603785
      ],
      [
        "which",
        -6.059178451760548
      ],
      [
        "→",
        -6.065241461795338
      ],
      [
        "?",
        -6.079310917121486
      ],
      [
        "^",
        -6.0831218891014345
      ],
      [
        "l",
        -6.086080759431997
      ],
      [
        "not",
        -6.12402798128986
      ],
      [
        "first",
        -6.1967134897657665
      ],
      [
        "\"",
        -6.244233967017282
      ],
      [
        "6",
        -6.3279026321123695
      ],
      [
        "then",
        -6.338658829932426
      ],
      [
        "A",
        -6.342110185172913
      ],
      [
        "code",
        -6.352427795566085
      ],
      [
        "u",
        -6.360453904993147
      ],
      [
        "Let",
        -6.364292755285277
      ],
      [
        "h",
        -6.3657709182845
      ],
      [
        "number",
        -6.372077010871074
      ],
      [
        "have",
        -6.385022447310391
      ],
      [
        "would",
        -6.399762637607459
      ],
      [
        "j",
        -6.401891954916342
      ],
      [
        "For",
        -6.452503735802081
      ],
      [
        "sum",
        -6.458294677382678
      ],
      [
        "where",
        -6.49288981957244
      ],
      [
        "problem",
        -6.496431546681142
      ],
      [
        "must",
        -6.505429165218665
      ],
      [
        "&",
        -6.506085491706809
      ],
      [
        "I",
        -6.511736852615549
      ],
      [
        "two",
        -6.516952981444868
      ],
      [
        "possible",
        -6.53193913994528
      ],
      [
        "v",
        -6.543156327196659
      ],
      [
        "S",
        -6.558301080516509
      ],
      [
        "perhaps",
        -6.561935870204483
      ],
      [
        ";",
        -6.585373195652192
      ],
      [
        "one",
        -6.620649917248498
      ],
      [
        "g",
        -6.656195168567406
      ],
      [
        "B",
        -6.675970280489224
      ],
      [
        "example",
        -6.697334447392137
      ],
      [
        "²",
        -6.702991686968817
      ],
      [
        "7",
        -6.703950337240743
      ],
      [
        "Thus",
        -6.704085053053841
      ],
      [
        "Alternatively",
        -6.708355624900069
      ],
      [
        "when",
        -6.712537535503614
      ],
      [
        "8",
        -6.730237723445807
      ],
      [
        "since",
        -6.734772308221887
      ],
      [
        "has",
        -6.737380809043444
      ],
      [
        "between",
        -6.780542435887835
      ],
      [
        "Then",
        -6.795356537220698
      ],
      [
        "such",
        -6.8173063704060475
      ],
      [
        "case",
        -6.8524454640380625
      ],
      [
        "<",
        -6.854976292005988
      ],
      [
        "there",
        -6.874347083456097
      ],
      [
        "any",
        -6.88705225923999
      ],
      [
        "9",
        -6.8931884595874
      ],
      [
        "C",
        -6.910866425652586
      ],
      [
        ">",
        -6.926016973904307
      ],
      [
        "compute",
        -6.951029088414039
      ],
      [
        "T",
        -6.9540927634346446
      ],
      [
        "10",
        -6.9634935300273675
      ],
      [
        "need",
        -6.972530931348286
      ],
      [
        "approach",
        -6.988298712854775
      ],
      [
        "their",
        -7.024757328162972
      ],
      [
        "path",
        -7.052105682873069
      ],
      [
        "step",
        -7.071143402337473
      ],
      [
        "up",
        -7.077209196581206
      ],
      [
        "right",
        -7.091384111149274
      ],
      [
        "z",
        -7.101460868326818
      ],
      [
        "let",
        -7.109162209109202
      ],
      [
        "time",
        -7.114582729294627
      ],
      [
        "\\(",
        -7.121859463157186
      ],
      [
        "maybe",
        -7.127832463972922
      ],
      [
        "N",
        -7.129954302990901
      ],
      [
        "line",
        -7.137665915715681
      ],
      [
        "total",
        -7.139721585434998
      ],
      [
        "order",
        -7.144893822529717
      ],
      [
        "edges",
        -7.151284376836296
      ],
      [
        "maximum",
        -7.151542486170147
      ],
      [
        "|",
        -7.17616334645227
      ],
      [
        "how",
        -7.176794287614925
      ],
      [
        "edge",
        -7.184285651339479
      ],
      [
        "only",
        -7.187765099946519
      ],
      [
        "find",
        -7.1943195856642355
      ],
      [
        "way",
        -7.196072364235473
      ],
      [
        "elements",
        -7.199105774599333
      ],
      [
        "D",
        -7.200104505588637
      ],
      [
        "left",
        -7.203340795957265
      ],
      [
        "xcite",
        -7.207862758215834
      ],
      [
        "same",
        -7.209170568611675
      ],
      [
        "sqrt",
        -7.212303392785964
      ],
      [
        "length",
        -7.215642660576341
      ],
      [
        "after",
        -7.215898269193799
      ],
      [
        "other",
        -7.22370586744514
      ],
      [
        "current",
        -7.22443227661641
      ],
      [
        "node",
        -7.230881831300632
      ],
      [
        "value",
        -7.242221479604215
      ],
      [
        "think",
        -7.2503750393206445
      ],
      [
        "L",
        -7.2570511897240255
      ],
      [
        "Therefore",
        -7.270392200653067
      ],
      [
        "steps",
        -7.274803168201878
      ],
      [
        "even",
        -7.277380578461084
      ],
      [
        "function",
        -7.277448683825952
      ],
      [
        "count",
        -7.28224497239807
      ],
      [
        "than",
        -7.291399430058203
      ],
      [
        "R",
        -7.294088932724403
      ],
      [
        "given",
        -7.300897693944524
      ],
      [
        "minimal",
        -7.30474416106334
      ],
      [
        "check",
        -7.323879565186836
      ],
      [
        "point",
        -7.327426712439294
      ],
      [
        "some",
        -7.3316771267187395
      ],
      [
        "input",
        -7.338157448701104
      ],
      [
        "position",
        -7.3439363662447
      ],
      [
        "Hmm",
        -7.348395296571592
      ],
      [
        "If",
        -7.349433953218259
      ],
      [
        "into",
        -7.3682233955140415
      ],
      [
        "output",
        -7.378549950066564
      ],
      [
        "using",
        -7.378656445671751
      ],
      [
        "second",
        -7.3833536347391195
      ],
      [
        "list",
        -7.400475629175363
      ],
      [
        "part",
        -7.409061191481316
      ],
      [
        "terms",
        -7.415756793719176
      ],
      [
        "here",
        -7.423390830130941
      ],
      [
        "P",
        -7.435327443519636
      ],
      [
        "term",
        -7.43957966687379
      ],
      [
        "q",
        -7.445995104908533
      ],
      [
        "non",
        -7.470596082822299
      ],
      [
        "array",
        -7.472570142785461
      ],
      [
        "zero",
        -7.476099739767731
      ],
      [
        "next",
        -7.481621657066
      ],
      [
        "will",
        -7.501636327925329
      ],
      [
        "you",
        -7.506717109622292
      ],
      [
        "This",
        -7.5130579651512
      ],
      [
        "mod",
        -7.5144160636282304
      ],
      [
        "points",
        -7.531881919535563
      ],
      [
        ")^",
        -7.533218901289096
      ],
      [
        "these",
        -7.552383954484288
      ],
      [
        "row",
        -7.553912693962406
      ],
      [
        "frac",
        -7.560425838023187
      ],
      [
        "also",
        -7.568187244837247
      ],
      [
        "element",
        -7.5715391746718
      ],
      [
        "new",
        -7.574937989307365
      ],
      [
        "string",
        -7.575283776712082
      ],
      [
        "W",
        -7.578117267993546
      ],
      [
        "O",
        -7.580650033098854
      ],
      [
        "over",
        -7.601376376059179
      ],
      [
        "#",
        -7.615457107891466
      ],
      [
        "model",
        -7.616611079551282
      ],
      [
        "equation",
        -7.619509471139622
      ],
      [
        "sample",
        -7.623291675421854
      ],
      [
        ")/",
        -7.636736848277094
      ],
      [
        "answer",
        -7.637733179470972
      ],
      [
        "distance",
        -7.640864284311657
      ],
      [
        "both",
        -7.647608768867141
      ],
      [
        "different",
        -7.6530826351935275
      ],
      [
        "M",
        -7.667561592853737
      ],
      [
        "correct",
        -7.673009001790099
      ],
      [
        "like",
        -7.674468762527823
      ],
      [
        "original",
        -7.678562401752201
      ],
      [
        "$$$",
        -7.685674724032598
      ],
      [
        "^{",
        -7.689365389356341
      ],
      [
        "nodes",
        -7.693166434553806
      ],
      [
        ">=",
        -7.702566055248802
      ],
      [
        "<=",
        -7.725474090648353
      ],
      [
        "solution",
        -7.731544535586295
      ],
      [
        "form",
        -7.731667185895805
      ],
      [
        "use",
        -7.737791331184994
      ],
      [
        "state",
        -7.749984815313374
      ],
      [
        "\\)",
        -7.7540690130555365
      ],
      [
        "exactly",
        -7.755316245342156
      ],
      [
        "three",
        -7.758123965711022
      ],
      [
        "}{",
        -7.759002872582299
      ],
      [
        "may",
        -7.764136107181519
      ],
      [
        "range",
        -7.764298682633406
      ],
      [
        "equal",
        -7.7702155160808335
      ],
      [
        "because",
        -7.774413415668862
      ],
      [
        "Now",
        -7.778527644683278
      ],
      [
        "sequence",
        -7.779436744054792
      ],
      [
        "direction",
        -7.782180771008603
      ],
      [
        "end",
        -7.7853548766306915
      ],
      [
        "pair",
        -7.785527097935535
      ],
      [
        "more",
        -7.790936498502704
      ],
      [
        "numbers",
        -7.799510832575363
      ],
      [
        "X",
        -7.818079451509119
      ],
      [
        "return",
        -7.822253934349856
      ],
      [
        "E",
        -7.844578755463967
      ],
      [
        "Because",
        -7.866310297728759
      ],
      [
        "was",
        -7.867828780408843
      ],
      [
        "pairs",
        -7.86787841861935
      ],
      [
        "those",
        -7.873124021049469
      ],
      [
        "16",
        -7.886175583314868
      ],
      [
        "they",
        -7.886274676815738
      ],
      [
        "%",
        -7.8885123783592555
      ],
      [
        "choose",
        -7.888694727482802
      ],
      [
        "character",
        -7.895387641539736
      ],
      [
        "size",
        -7.895543431217904
      ],
      [
        "≈",
        -7.898832787126581
      ],
      [
        "previous",
        -7.901287796194019
      ],
      [
        "initial",
        -7.908694798546051
      ],
      [
        "characters",
        -7.910354307495588
      ],
      [
        "Since",
        -7.9180538404772545
      ],
      [
        "might",
        -7.92054128274434
      ],
      [
        "could",
        -7.9221146802755715
      ],
      [
        "should",
        -7.927636916148467
      ],
      [
        "F",
        -7.93633120489722
      ],
      [
        "test",
        -7.9439071894590185
      ],
      [
        "a_i",
        -7.946776074240189
      ],
      [
        "tree",
        -7.9521410123047485
      ],
      [
        "fig",
        -7.9568662721364
      ],
      [
        "group",
        -7.960602582950582
      ],
      [
        "sum_",
        -7.961660138046872
      ],
      [
        "int",
        -7.9628615300552585
      ],
      [
        "cell",
        -7.971437323657328
      ],
      [
        "values",
        -7.972211690442373
      ],
      [
        "K",
        -7.974015859221533
      ],
      [
        "else",
        -7.975171679858393
      ],
      [
        "gives",
        -7.981764011765071
      ],
      [
        "our",
        -7.991866493420558
      ],
      [
        "process",
        -7.999372354521796
      ],
      [
        "...",
        -8.006703595885988
      ],
      [
        "][",
        -8.024238913652873
      ],
      [
        "another",
        -8.046120928692204
      ],
      [
        "max",
        -8.048682340087968
      ],
      [
        "consider",
        -8.052131508377373
      ],
      [
        "valid",
        -8.056489080412206
      ],
      [
        "condition",
        -8.058616435025678
      ],
      [
        "take",
        -8.059104611255599
      ],
      [
        "product",
        -8.06169807217169
      ],
      [
        "positions",
        -8.069412876847455
      ],
      [
        "last",
        -8.072142488778647
      ],
      [
        "thus",
        -8.072612465021328
      ],
      [
        "large",
        -8.081966988518953
      ],
      [
        "start",
        -8.082888476824262
      ],
      [
        "≤",
        -8.082936198742084
      ],
      [
        "move",
        -8.084978543866878
      ],
      [
        "based",
        -8.088289156697476
      ],
      [
        "vector",
        -8.096383391026482
      ],
      [
        "get",
        -8.097474243935107
      ],
      [
        "again",
        -8.097519954074327
      ],
      [
        "bit",
        -8.103091421674517
      ],
      [
        "becomes",
        -8.11068777749968
      ],
      [
        "eq",
        -8.11646366471922
      ],
      [
        "program",
        -8.129656452600713
      ],
      [
        "single",
        -8.130565997892965
      ],
      [
        "!",
        -8.13107376719946
      ],
      [
        "column",
        -8.131220679781757
      ],
      [
        "least",
        -8.131234116192726
      ],
      [
        "requires",
        -8.131591863056443
      ],
      [
        "split",
        -8.133033929624128
      ],
      [
        "integer",
        -8.135797807122898
      ],
      [
        "loop",
        -8.149208534198166
      ],
      [
        "**",
        -8.150417054011074
      ],
      [
        "through",
        -8.155921610790028
      ],
      [
        "odd",
        -8.158103909413821
      ],
      [
        "cos",
        -8.158689943578986
      ],
      [
        "before",
        -8.159742289693598
      ],
      [
        "First",
        -8.160586894966137
      ],
      [
        "starting",
        -8.165926707273902
      ],
      [
        "15",
        -8.171877213120531
      ],
      [
        "root",
        -8.17671095995256
      ],
      [
        "√",
        -8.178417865845796
      ],
      [
        "per",
        -8.178799274066657
      ],
      [
        "100",
        -8.178863000862778
      ],
      [
        "However",
        -8.180550121695088
      ],
      [
        "interval",
        -8.18301070836298
      ],
      [
        "//",
        -8.190834049453088
      ],
      [
        "Suppose",
        -8.196081530363227
      ],
      [
        "formula",
        -8.197878449960289
      ],
      [
        "about",
        -8.200808990187227
      ],
      [
        "variables",
        -8.2012397902638
      ],
      [
        "angle",
        -8.20185106715836
      ],
      [
        "positive",
        -8.203112592009271
      ],
      [
        "*(",
        -8.203136454783866
      ],
      [
        "space",
        -8.204841846773805
      ],
      [
        "ing",
        -8.206917583720113
      ],
      [
        "th",
        -8.21309251585475
      ],
      [
        "add",
        -8.21858409926468
      ],
      [
        "following",
        -8.223760064580167
      ],
      [
        "wait",
        -8.22952812033453
      ],
      [
        "side",
        -8.23177645058963
      ],
      [
        "key",
        -8.244071723161957
      ],
      [
        "25",
        -8.244942120142381
      ],
      [
        "data",
        -8.2464475587217
      ],
      [
        "print",
        -8.247363951222999
      ],
      [
        "digits",
        -8.248263397291504
      ],
      [
        "while",
        -8.257070263853507
      ],
      [
        "square",
        -8.259104521080658
      ],
      [
        "’",
        -8.267399722966179
      ],
      [
        "work",
        -8.275971174014291
      ],
      [
        "{\\",
        -8.279337675421399
      ],
      [
        "prime",
        -8.279364897366063
      ],
      [
        "result",
        -8.279758906608373
      ],
      [
        "used",
        -8.281040050117564
      ],
      [
        "query",
        -8.285929518491573
      ],
      [
        "structure",
        -8.286877200019862
      ],
      [
        "sure",
        -8.288116665940526
      ],
      [
        "graph",
        -8.288481424826374
      ],
      [
        "required",
        -8.288687318006046
      ],
      [
        "yes",
        -8.292171772043453
      ],
      [
        "says",
        -8.294072708089198
      ],
      [
        "digit",
        -8.296131591930804
      ],
      [
        "sorted",
        -8.299139419011068
      ],
      [
        "$",
        -8.30761492948368
      ],
      [
        "}\\",
        -8.309996457915231
      ],
      [
        "Each",
        -8.311143701715318
      ],
      [
        "constraints",
        -8.311218334383254
      ],
      [
        "remaining",
        -8.320749759479565
      ],
      [
        "small",
        -8.328419264589728
      ],
      [
        "，",
        -8.32935822774759
      ],
      [
        "he",
        -8.332505210955748
      ],
      [
        "long",
        -8.334445568300115
      ],
      [
        "energy",
        -8.340093611991232
      ],
      [
        "H",
        -8.345173176331222
      ],
      [
        "either",
        -8.346260643279313
      ],
      [
        "lines",
        -8.347377222413307
      ],
      [
        "###",
        -8.347975075430515
      ],
      [
        "cycle",
        -8.348575833375605
      ],
      [
        ");",
        -8.352678948332048
      ],
      [
        "min",
        -8.353180089994835
      ],
      [
        "times",
        -8.357675599823217
      ],
      [
        "negative",
        -8.36160843193115
      ],
      [
        "G",
        -8.361942996465018
      ],
      [
        "less",
        -8.361951903573535
      ],
      [
        "system",
        -8.371216605747021
      ],
      [
        "third",
        -8.374930214395492
      ],
      [
        "bits",
        -8.37775246896997
      ],
      [
        "algorithm",
        -8.378430724448794
      ],
      [
        "above",
        -8.380683423271977
      ],
      [
        "index",
        -8.38367169217181
      ],
      [
        "better",
        -8.387385023072707
      ],
      [
        "xmath0",
        -8.38908400538535
      ],
      [
        "now",
        -8.393900555827086
      ],
      [
        "\\[",
        -8.396165157661446
      ],
      [
        "matrix",
        -8.399755177210995
      ],
      [
        "\\]",
        -8.403707868098524
      ],
      [
        "subset",
        -8.405613067136715
      ],
      [
        "out",
        -8.406096689448006
      ],
      [
        "permutation",
        -8.406333013502234
      ],
      [
        "Y",
        -8.406700218049746
      ],
      [
        "cells",
        -8.408244092804608
      ],
      [
        "triangle",
        -8.410956332155385
      ],
      [
        "four",
        -8.41269617513824
      ],
      [
        "follows",
        -8.418630944239846
      ],
      [
        "len",
        -8.419696974831245
      ],
      [
        "expression",
        -8.421142275177397
      ],
      [
        "field",
        -8.424013875539503
      ],
      [
        "track",
        -8.427575730372606
      ],
      [
        "connected",
        -8.427607903208104
      ],
      [
        "segment",
        -8.429123810154383
      ],
      [
        "present",
        -8.437869043328798
      ],
      [
        "states",
        -8.444853494921958
      ],
      [
        "found",
        -8.447893360278075
      ],
      [
        "try",
        -8.4490249025727
      ],
      [
        "does",
        -8.456059665385206
      ],
      [
        "include",
        -8.458851826951753
      ],
      [
        "been",
        -8.45930570981001
      ],
      [
        "color",
        -8.460543430540868
      ],
      [
        "plus",
        -8.473943473888442
      ],
      [
        "component",
        -8.483972320308883
      ],
      [
        "cost",
        -8.484839965070925
      ],
      [
        "allowed",
        -8.485014544064276
      ],
      [
        "higher",
        -8.488936894884521
      ],
      [
        "grid",
        -8.489338580223638
      ],
      [
        "20",
        -8.49175049403486
      ],
      [
        "Another",
        -8.49246497807043
      ],
      [
        "Which",
        -8.495859753658081
      ],
      [
        "along",
        -8.501967987772117
      ],
      [
        "top",
        -8.503829873861998
      ],
      [
        "Similarly",
        -8.507820098810509
      ],
      [
        "make",
        -8.509890608776056
      ],
      [
        "within",
        -8.510151845930356
      ],
      [
        "π",
        -8.514841386913574
      ],
      [
        "cases",
        -8.51844153037552
      ],
      [
        "Q",
        -8.520781537915212
      ],
      [
        "delta",
        -8.521222258993483
      ],
      [
        "via",
        -8.52487923218151
      ],
      [
        "seems",
        -8.526947996143013
      ],
      [
        "down",
        -8.529772350493719
      ],
      [
        "entire",
        -8.532101281640838
      ],
      [
        "Maybe",
        -8.532157175503574
      ],
      [
        "lower",
        -8.533234158954645
      ],
      [
        "type",
        -8.53940034341816
      ],
      [
        "minimum",
        -8.546168148822284
      ],
      [
        "written",
        -8.548352045388963
      ],
      [
        "empty",
        -8.550271711846605
      ],
      [
        "parent",
        -8.55634599597999
      ],
      [
        "Python",
        -8.557320458371343
      ],
      [
        "processing",
        -8.560354263108776
      ],
      [
        "multiple",
        -8.56226311235922
      ],
      [
        "many",
        -8.562797749502195
      ],
      [
        "difference",
        -8.563774738168101
      ],
      [
        "what",
        -8.566811679801651
      ],
      [
        "```",
        -8.569505972996534
      ],
      [
        "being",
        -8.580558519282434
      ],
      [
        "except",
        -8.582085292760517
      ],
      [
        "once",
        -8.582638641450504
      ],
      [
        "most",
        -8.583097904697782
      ],
      [
        "without",
        -8.594743263557218
      ],
      [
        "rows",
        -8.599141449689867
      ],
      [
        "`",
        -8.599604501627661
      ],
      [
        "adding",
        -8.59977523838499
      ],
      [
        "larger",
        -8.60041279842517
      ],
      [
        "region",
        -8.603733713202992
      ],
      [
        "every",
        -8.604731156026979
      ],
      [
        "just",
        -8.605526229822484
      ],
      [
        "mass",
        -8.6073682238901
      ],
      [
        "whether",
        -8.60788232375313
      ],
      [
        "17",
        -8.608259237876155
      ],
      [
        "vertices",
        -8.613460543710605
      ],
      [
        "base",
        -8.62221900681745
      ],
      [
        "coordinates",
        -8.624495328795202
      ],
      [
        "high",
        -8.629093686596887
      ],
      [
        "18",
        -8.634470122624098
      ],
      [
        "write",
        -8.639742512409587
      ],
      [
        "circle",
        -8.640040977345269
      ],
      [
        "contribution",
        -8.640603126449772
      ],
      [
        "standard",
        -8.640684333689826
      ],
      [
        "exists",
        -8.643058872402655
      ],
      [
        "according",
        -8.647551153679872
      ],
      [
        "No",
        -8.648266896979651
      ],
      [
        "results",
        -8.648852048794392
      ],
      [
        "similar",
        -8.650383170171212
      ],
      [
        "binary",
        -8.65133466161583
      ],
      [
        "def",
        -8.654970447204152
      ],
      [
        "Compute",
        -8.656235045866358
      ],
      [
        "center",
        -8.659294223373209
      ],
      [
        "integers",
        -8.664612633870934
      ],
      [
        "limit",
        -8.667186063369108
      ],
      [
        "AB",
        -8.667957594984507
      ],
      [
        "block",
        -8.668218796334658
      ],
      [
        "primes",
        -8.67687550921137
      ],
      [
        "say",
        -8.687787905668332
      ],
      [
        "factor",
        -8.691656669147351
      ],
      [
        "something",
        -8.6925675351494
      ],
      [
        "Not",
        -8.693287903888242
      ],
      [
        "probability",
        -8.694352539757073
      ],
      [
        "moving",
        -8.70012477337897
      ],
      [
        "low",
        -8.71013102760909
      ],
      [
        "idea",
        -8.711321768447107
      ],
      [
        "vertex",
        -8.711611773133505
      ],
      [
        "XOR",
        -8.715640464450477
      ],
      [
        "That",
        -8.722391047387827
      ],
      [
        "\\).",
        -8.723641179712367
      ],
      [
        "variable",
        -8.724161173991334
      ],
      [
        "14",
        -8.725095500102414
      ],
      [
        "xmath1",
        -8.726958409825974
      ],
      [
        "adjacent",
        -8.72831427136571
      ],
      [
        "already",
        -8.728603406430828
      ],
      [
        "<<",
        -8.729351480001304
      ],
      [
        "的",
        -8.729557608247362
      ],
      [
        "letters",
        -8.732067621811854
      ],
      [
        "Yes",
        -8.733155065574447
      ],
      [
        "leading",
        -8.738675589139573
      ],
      [
        "fixed",
        -8.73906900863388
      ],
      [
        "very",
        -8.742514327678482
      ],
      [
        "≥",
        -8.743072823187395
      ],
      [
        "phase",
        -8.744712146176765
      ],
      [
        "needed",
        -8.748833204247983
      ],
      [
        "exponent",
        -8.752270057087086
      ],
      [
        "added",
        -8.753461855105236
      ],
      [
        "proceed",
        -8.75616881050243
      ],
      [
        "linear",
        -8.757095263572579
      ],
      [
        "×",
        -8.759695627463259
      ],
      [
        "back",
        -8.761278119908583
      ],
      [
        "Hence",
        -8.766847217147204
      ],
      [
        "floor",
        -8.767814417739709
      ],
      [
        "certain",
        -8.769447683244294
      ],
      [
        "power",
        -8.77133545888136
      ],
      [
        "intervals",
        -8.77192673461433
      ],
      [
        "Perhaps",
        -8.775989616207632
      ],
      [
        "functions",
        -8.77646222788861
      ],
      [
        "³",
        -8.77858171755094
      ],
      [
        "doesn",
        -8.778594979750858
      ],
      [
        "V",
        -8.779762291747431
      ],
      [
        "section",
        -8.780236910126195
      ],
      [
        "note",
        -8.782720620705943
      ],
      [
        "density",
        -8.785369275850531
      ],
      [
        "contains",
        -8.788469270114367
      ],
      [
        "real",
        -8.79299568380699
      ],
      [
        "figure",
        -8.801183858301767
      ],
      [
        "well",
        -8.802332163201614
      ],
      [
        "constant",
        -8.803387660496385
      ],
      [
        "≡",
        -8.804001253716727
      ],
      [
        "were",
        -8.80729009007655
      ],
      [
        "allows",
        -8.807630989532086
      ],
      [
        "~",
        -8.811835642644965
      ],
      [
        "starts",
        -8.814980660303403
      ],
      [
        "final",
        -8.816395648046447
      ],
      [
        "best",
        -8.81902270423697
      ],
      [
        "operations",
        -8.820144185539705
      ],
      [
        "map",
        -8.821457217767685
      ],
      [
        "conditions",
        -8.82432596237965
      ],
      [
        "log",
        -8.825313317808435
      ],
      [
        "inside",
        -8.826075566632133
      ],
      [
        "considered",
        -8.827057766970373
      ],
      [
        "true",
        -8.831611198030782
      ],
      [
        "main",
        -8.832688677943496
      ],
      [
        "degree",
        -8.845608576603185
      ],
      [
        "columns",
        -8.847875583766344
      ],
      [
        "method",
        -8.84789798847443
      ],
      [
        "target",
        -8.85913640378701
      ],
      [
        "chosen",
        -8.871473705555648
      ],
      [
        "equations",
        -8.871703237753547
      ],
      [
        "solutions",
        -8.871888651873235
      ],
      [
        "\\),",
        -8.87323767419804
      ],
      [
        "counts",
        -8.873251167836571
      ],
      [
        "source",
        -8.873385426076926
      ],
      [
        "30",
        -8.878377404736256
      ],
      [
        "moves",
        -8.882443411907154
      ],
      [
        "still",
        -8.883155341710543
      ],
      [
        "during",
        -8.885627783262919
      ],
      [
        "determined",
        -8.886595053514556
      ],
      [
        "smallest",
        -8.889379273230718
      ],
      [
        "optimal",
        -8.896044539385134
      ],
      [
        "computed",
        -8.899239267094341
      ],
      [
        "Or",
        -8.899352437929128
      ],
      [
        "level",
        -8.900132954838014
      ],
      [
        "cross",
        -8.900624243676134
      ],
      [
        "actually",
        -8.901628360331596
      ],
      [
        "considering",
        -8.907148840328729
      ],
      [
        "smaller",
        -8.913970928435202
      ],
      [
        "player",
        -8.916208501330013
      ],
      [
        "require",
        -8.924066096721155
      ],
      [
        "read",
        -8.92684016645237
      ],
      [
        "parameters",
        -8.927375251670592
      ],
      [
        "around",
        -8.927531570734612
      ],
      [
        "indices",
        -8.92847333001099
      ],
      [
        "50",
        -8.929247619504464
      ],
      [
        "paths",
        -8.932967835179614
      ],
      [
        "give",
        -8.939398825258204
      ],
      [
        "distinct",
        -8.944498448243639
      ],
      [
        "DP",
        -8.94588733275023
      ],
      [
        "prefix",
        -8.949024613759873
      ],
      [
        "children",
        -8.952889505526445
      ],
      [
        "是",
        -8.955210184056579
      ],
      [
        "24",
        -8.95630704120438
      ],
      [
        "increasing",
        -8.958121538746889
      ],
      [
        "done",
        -8.958990637696557
      ],
      [
        "xmath2",
        -8.959678743333411
      ],
      [
        "substring",
        -8.961873527083858
      ],
      [
        "components",
        -8.964225119831204
      ],
      [
        "depth",
        -8.96427062602973
      ],
      [
        ")/(",
        -8.966101643186365
      ],
      [
        "candidate",
        -8.969981132342681
      ],
      [
        "however",
        -8.972580127503342
      ],
      [
        "general",
        -8.974181155782269
      ],
      [
        "ratio",
        -8.979292396021538
      ],
      [
        "works",
        -8.979836818631354
      ],
      [
        "stack",
        -8.982584605382645
      ],
      [
        "Check",
        -8.982844107581782
      ],
      [
        "parts",
        -8.984423993118215
      ],
      [
        "19",
        -8.98594460772679
      ],
      [
        "000",
        -8.987744117154971
      ],
      [
        "turn",
        -8.988271572516012
      ],
      [
        "distribution",
        -8.9902453987452
      ],
      [
        "consecutive",
        -8.990660976383154
      ],
      [
        "under",
        -8.991048752612267
      ],
      [
        "°",
        -8.991421831731984
      ],
      [
        "due",
        -8.992256199702407
      ],
      [
        "run",
        -8.994888518892632
      ],
      [
        ">>",
        -8.995055619231403
      ],
      [
        "corresponding",
        -8.995871611025736
      ],
      [
        "defined",
        -9.000477010170192
      ],
      [
        "BC",
        -9.006881376928195
      ],
      [
        "polygon",
        -9.007233746700546
      ],
      [
        "pos",
        -9.008593360727414
      ],
      [
        "until",
        -9.009090768329
      ],
      [
        "feasible",
        -9.00941813954899
      ],
      [
        "integral",
        -9.015096223152431
      ],
      [
        "?),",
        -9.015752954091017
      ],
      [
        "vertical",
        -9.018821685483832
      ],
      [
        "denominator",
        -9.018903355485644
      ],
      [
        "x_i",
        -9.023711116825616
      ],
      [
        "convex",
        -9.024325251161331
      ],
      [
        "phys",
        -9.029156796150064
      ],
      [
        "parity",
        -9.030788965115667
      ],
      [
        "radius",
        -9.031591229775447
      ],
      [
        "matches",
        -9.03183853750204
      ],
      [
        "obtained",
        -9.037141414200985
      ],
      [
        "represent",
        -9.03777337805698
      ],
      [
        "—",
        -9.03807336211017
      ],
      [
        "factors",
        -9.039535187398306
      ],
      [
        "handle",
        -9.039900737309399
      ],
      [
        "pattern",
        -9.041930182960892
      ],
      [
        "sides",
        -9.042889802210881
      ],
      [
        "!=",
        -9.043432689978456
      ],
      [
        "including",
        -9.046085103133441
      ],
      [
        "shown",
        -9.047647491272173
      ],
      [
        "change",
        -9.05009233955383
      ],
      [
        "break",
        -9.050808382714655
      ],
      [
        "27",
        -9.057109211730289
      ],
      [
        "subtree",
        -9.059032022644015
      ],
      [
        "impossible",
        -9.059465532419757
      ],
      [
        "efficiently",
        -9.060116694902534
      ],
      [
        "θ",
        -9.06147315638548
      ],
      [
        "earlier",
        -9.061984103458228
      ],
      [
        "known",
        -9.06497603349747
      ],
      [
        "largest",
        -9.065736816676848
      ],
      [
        "available",
        -9.066336011197523
      ],
      [
        "U",
        -9.069106996829213
      ],
      [
        "upper",
        -9.071279751606168
      ],
      [
        "star",
        -9.071760077301823
      ],
      [
        "determine",
        -9.072218584333003
      ],
      [
        "generate",
        -9.075102937119446
      ],
      [
        "followed",
        -9.075228400413737
      ],
      [
        "import",
        -9.076400608385086
      ],
      [
        "reverse",
        -9.077270249566316
      ],
      [
        "60",
        -9.080502751825428
      ],
      [
        "processed",
        -9.08082159634864
      ],
      [
        "bytes",
        -9.083354112059057
      ],
      [
        "unique",
        -9.088441725560177
      ],
      [
        "statement",
        -9.088659348236925
      ],
      [
        "divided",
        -9.090187615686224
      ],
      [
        "look",
        -9.095763054428874
      ],
      [
        "suppose",
        -9.108333723598594
      ],
      [
        "parameter",
        -9.109247216773793
      ],
      [
        "reach",
        -9.110709688899277
      ],
      [
        "64",
        -9.112803198185304
      ],
      [
        "error",
        -9.115695727047333
      ],
      [
        "divisible",
        -9.122767586118188
      ],
      [
        "MOD",
        -9.12463156032871
      ],
      [
        "implies",
        -9.130618853714267
      ],
      [
        "xmath3",
        -9.130713183168647
      ],
      [
        "getting",
        -9.132486816368377
      ],
      [
        "day",
        -9.135825447661645
      ],
      [
        "coordinate",
        -9.136640074056153
      ],
      [
        "lambda",
        -9.136745838754777
      ],
      [
        "own",
        -9.137457836551922
      ],
      [
        "operation",
        -9.141371106182797
      ],
      [
        "mean",
        -9.149360687884538
      ],
      [
        "exact",
        -9.149516328317024
      ],
      [
        "36",
        -9.152014725840376
      ],
      [
        "groups",
        -9.1525619211892
      ],
      [
        "satisfy",
        -9.152855591266075
      ],
      [
        "expected",
        -9.154842442310477
      ],
      [
        "transition",
        -9.156257287497954
      ],
      [
        "current_",
        -9.157138503886712
      ],
      [
        "ll",
        -9.160922773571398
      ],
      [
        "After",
        -9.169283204083992
      ],
      [
        "chain",
        -9.170176764146028
      ],
      [
        "complex",
        -9.170855572204324
      ],
      [
        "assume",
        -9.171307305210632
      ],
      [
        "width",
        -9.171941401964668
      ],
      [
        "below",
        -9.172017745606068
      ],
      [
        "denote",
        -9.175206476406858
      ],
      [
        "mask",
        -9.177749834049965
      ],
      [
        "``",
        -9.183271726679775
      ],
      [
        "\\\\",
        -9.185084318490023
      ],
      [
        "^{-",
        -9.188830472580513
      ],
      [
        "black",
        -9.189469923717688
      ],
      [
        "much",
        -9.190815702308768
      ],
      [
        "cdot",
        -9.19146242756529
      ],
      [
        "subsets",
        -9.191718993755046
      ],
      [
        "temperature",
        -9.192745849731391
      ],
      [
        "append",
        -9.193995830903456
      ],
      [
        "assuming",
        -9.196917565625684
      ],
      [
        "coefficients",
        -9.197506312334768
      ],
      [
        "squares",
        -9.200560196088299
      ],
      [
        "fact",
        -9.203061084252917
      ],
      [
        "axis",
        -9.203638286697647
      ],
      [
        "boxed",
        -9.205934825711001
      ],
      [
        "made",
        -9.207013717343662
      ],
      [
        "child",
        -9.209307148127504
      ],
      [
        "text",
        -9.209496844468203
      ],
      [
        "AC",
        -9.210536591679574
      ],
      [
        "actual",
        -9.21510701805771
      ],
      [
        "shows",
        -9.217684182875283
      ],
      [
        "manageable",
        -9.217873319333894
      ],
      [
        "theorem",
        -9.218199574905665
      ],
      [
        "greater",
        -9.220779982301565
      ],
      [
        "table",
        -9.222146045476997
      ],
      [
        "full",
        -9.222827054106235
      ],
      [
        "When",
        -9.226567721862665
      ],
      [
        "segments",
        -9.227052849755642
      ],
      [
        "therefore",
        -9.231042962920355
      ],
      [
        "queries",
        -9.232914336414527
      ],
      [
        "horizontal",
        -9.233218757275873
      ],
      [
        "Input",
        -9.235690702140719
      ],
      [
        "includes",
        -9.236630965494388
      ],
      [
        "solve",
        -9.23678916265355
      ],
      [
        "spin",
        -9.236855134109515
      ],
      [
        "multiplied",
        -9.238555309396343
      ],
      [
        "free",
        -9.24260295916788
      ],
      [
        "among",
        -9.243572881912867
      ],
      [
        "potential",
        -9.243856789743036
      ],
      [
        "operator",
        -9.245505317237486
      ],
      [
        "red",
        -9.245921367196868
      ],
      [
        "new_",
        -9.246365852101151
      ],
      [
        "rotation",
        -9.24658642989901
      ],
      [
        "bottom",
        -9.247255231976137
      ],
      [
        "xmath4",
        -9.24727944893889
      ],
      [
        "average",
        -9.249264270965329
      ],
      [
        "search",
        -9.253292068402214
      ],
      [
        "language",
        -9.254400997738642
      ],
      [
        "quantum",
        -9.254984507579726
      ],
      [
        "itself",
        -9.256327692502559
      ],
      [
        "regions",
        -9.256627859398574
      ],
      [
        "rest",
        -9.2583131847603
      ],
      [
        "analysis",
        -9.259313233453245
      ],
      [
        "increases",
        -9.260234154895997
      ],
      [
        "suggests",
        -9.266109267686906
      ],
      [
        "properties",
        -9.273902015402642
      ],
      [
        "observed",
        -9.274480403681965
      ],
      [
        "EO",
        -9.275089186276526
      ],
      [
        "polynomial",
        -9.27512929780828
      ],
      [
        "question",
        -9.276327106412488
      ],
      [
        "numerator",
        -9.277241615087071
      ],
      [
        "common",
        -9.277316231285717
      ],
      [
        "}}",
        -9.27767842103966
      ],
      [
        "represented",
        -9.278983161016349
      ],
      [
        "area",
        -9.281182019514718
      ],
      [
        "Output",
        -9.283588619782034
      ],
      [
        "respectively",
        -9.284731519238369
      ],
      [
        "->",
        -9.285161627624015
      ],
      [
        "intersection",
        -9.285928098506913
      ],
      [
        "invalid",
        -9.286460183928506
      ],
      [
        "depends",
        -9.286508615978143
      ],
      [
        "random",
        -9.28916510788816
      ],
      [
        "Alternative",
        -9.291045230920918
      ],
      [
        "²)",
        -9.292150664979491
      ],
      [
        "further",
        -9.292320388222505
      ],
      [
        "plane",
        -9.294599548567215
      ],
      [
        "unless",
        -9.294634176803276
      ],
      [
        "reduces",
        -9.299307104291195
      ],
      [
        "90",
        -9.301379889329818
      ],
      [
        "exponents",
        -9.301660118046263
      ],
      [
        "theory",
        -9.303369252775333
      ],
      [
        "indeed",
        -9.303410520652292
      ],
      [
        "particular",
        -9.306657885236584
      ],
      [
        "40",
        -9.311024985458593
      ],
      [
        "don",
        -9.312042909901692
      ],
      [
        "show",
        -9.313175326401458
      ],
      [
        "choice",
        -9.317710955753542
      ],
      [
        "1000",
        -9.317734330861684
      ],
      [
        "hence",
        -9.317755881603263
      ],
      [
        "scale",
        -9.319837855827506
      ],
      [
        "weight",
        -9.32128100973403
      ],
      [
        "vectors",
        -9.321297929775788
      ],
      [
        "Z",
        -9.323178618004285
      ],
      [
        "₁",
        -9.323898961012393
      ],
      [
        "create",
        -9.327595782544144
      ],
      [
        "magnetic",
        -9.327606612915993
      ],
      [
        "precompute",
        -9.327682401909938
      ],
      [
        "choosing",
        -9.328322571138264
      ],
      [
        "permutations",
        -9.33104970329637
      ],
      [
        "image",
        -9.332547032001886
      ],
      [
        "specific",
        -9.333779419215055
      ],
      [
        "existing",
        -9.3373751406237
      ],
      [
        "placed",
        -9.340415898226233
      ],
      [
        "okay",
        -9.340865334677588
      ],
      [
        "always",
        -9.342814806142274
      ],
      [
        "swap",
        -9.344049373749776
      ],
      [
        "approaches",
        -9.3447702721017
      ],
      [
        "occurrence",
        -9.344899769315996
      ],
      [
        "self",
        -9.345572162351024
      ],
      [
        "uses",
        -9.347475211435116
      ],
      [
        "equivalent",
        -9.347477517922732
      ],
      [
        "your",
        -9.34814556832203
      ],
      [
        "xmath5",
        -9.349886623254942
      ],
      [
        "holds",
        -9.354489317886642
      ],
      [
        "sec",
        -9.355983587905566
      ],
      [
        "frequency",
        -9.356934898313563
      ],
      [
        "finite",
        -9.358684125339392
      ],
      [
        "means",
        -9.361065294992455
      ],
      [
        "finding",
        -9.361450427512128
      ],
      [
        "mid",
        -9.363848406606694
      ],
      [
        "x_",
        -9.367163824024495
      ],
      [
        "flow",
        -9.36815541328222
      ],
      [
        "Given",
        -9.371154712590219
      ],
      [
        "selected",
        -9.374865190741781
      ],
      [
        "rate",
        -9.378543700891932
      ],
      [
        "sub",
        -9.379754218408534
      ],
      [
        "}^{",
        -9.379936416717197
      ],
      [
        "minus",
        -9.38015785384192
      ],
      [
        "basis",
        -9.385093974425633
      ],
      [
        "α",
        -9.387521617551249
      ],
      [
        "effect",
        -9.387662439964409
      ],
      [
        "bound",
        -9.387726623047811
      ],
      [
        "half",
        -9.38888812901632
      ],
      [
        "good",
        -9.3906068732339
      ],
      [
        "Idea",
        -9.39303534779466
      ],
      [
        "reversed",
        -9.394395559091521
      ],
      [
        "stars",
        -9.397479558315089
      ],
      [
        "degrees",
        -9.398196252222846
      ],
      [
        "taken",
        -9.400081281697982
      ],
      [
        "b_i",
        -9.400730275481934
      ],
      [
        "xmath6",
        -9.402017620132645
      ],
      [
        "modulo",
        -9.403373560059938
      ],
      [
        "big",
        -9.405739435029185
      ],
      [
        "double",
        -9.406146270142482
      ],
      [
        "simple",
        -9.406507169891055
      ],
      [
        "sets",
        -9.406701326498492
      ],
      [
        "s_i",
        -9.406764441831928
      ],
      [
        "complicated",
        -9.406790702965495
      ],
      [
        "ray",
        -9.407985417335468
      ],
      [
        "directly",
        -9.408401974997643
      ],
      [
        "paper",
        -9.408464339993598
      ],
      [
        "}^",
        -9.409962410566225
      ],
      [
        "res",
        -9.410540310229646
      ],
      [
        "math",
        -9.411040680035097
      ],
      [
        "formed",
        -9.411958518156244
      ],
      [
        "calculation",
        -9.414858540916134
      ],
      [
        "cycles",
        -9.416162812089173
      ],
      [
        "continue",
        -9.41644303221767
      ],
      [
        "colors",
        -9.417604832269497
      ],
      [
        "overlapping",
        -9.417616397269915
      ],
      [
        "contribute",
        -9.417806715632056
      ],
      [
        "transitions",
        -9.41929230444254
      ],
      [
        "divides",
        -9.42026325450068
      ],
      [
        "calculate",
        -9.425873156126432
      ],
      [
        "contributes",
        -9.42610285792787
      ],
      [
        "rectangle",
        -9.426106928561778
      ],
      [
        "pick",
        -9.42635438091761
      ],
      [
        "critical",
        -9.426767218830165
      ],
      [
        "exist",
        -9.434127091302818
      ],
      [
        "word",
        -9.435471041347599
      ],
      [
        "desired",
        -9.437155069850636
      ],
      [
        "layer",
        -9.439835432861631
      ],
      [
        "surface",
        -9.441211908300936
      ],
      [
        "galaxies",
        -9.441216617761025
      ],
      [
        "coefficient",
        -9.441702813974501
      ],
      [
        "instance",
        -9.443976404111885
      ],
      [
        "26",
        -9.446473292245688
      ],
      [
        "diagonal",
        -9.447627733255887
      ],
      [
        "velocity",
        -9.450602062118561
      ],
      [
        "hull",
        -9.451790584919193
      ],
      [
        "];",
        -9.451973694741877
      ],
      [
        "1e5",
        -9.452093996849449
      ],
      [
        "light",
        -9.452115408783229
      ],
      [
        "Find",
        -9.452573841843728
      ],
      [
        "gcd",
        -9.453096009653835
      ],
      [
        "⇒",
        -9.453478464739579
      ],
      [
        "define",
        -9.455546287872153
      ],
      [
        "max_",
        -9.45914415056267
      ],
      [
        "：",
        -9.460372793652862
      ],
      [
        "taking",
        -9.461364757435298
      ],
      [
        "know",
        -9.462633091683646
      ],
      [
        "allow",
        -9.463333280064559
      ],
      [
        "instead",
        -9.46392521787294
      ],
      [
        "height",
        -9.465964623536419
      ],
      [
        "Initialize",
        -9.46607879710174
      ],
      [
        "**:",
        -9.467836970378789
      ],
      [
        "independent",
        -9.46789371745531
      ],
      [
        "Second",
        -9.468138003680915
      ],
      [
        "roots",
        -9.468735462321789
      ],
      [
        "divisors",
        -9.470151500921236
      ],
      [
        "combination",
        -9.470479944711911
      ],
      [
        "p_i",
        -9.47068304012119
      ],
      [
        "decreasing",
        -9.471031514388141
      ],
      [
        "game",
        -9.473161821653033
      ],
      [
        "Once",
        -9.473280978559941
      ],
      [
        "changes",
        -9.474926116912837
      ],
      [
        "far",
        -9.475039483110612
      ],
      [
        "boundary",
        -9.477850468624533
      ],
      [
        "emission",
        -9.478945038315713
      ],
      [
        "false",
        -9.479203859404766
      ],
      [
        "BFS",
        -9.480000470359842
      ],
      [
        "relation",
        -9.480374619930622
      ],
      [
        "GCD",
        -9.481179841896637
      ],
      [
        "xmath7",
        -9.48142417228912
      ],
      [
        "necessary",
        -9.481569342517405
      ],
      [
        "words",
        -9.482798439157929
      ],
      [
        "theta",
        -9.485927262129144
      ],
      [
        "obtain",
        -9.486152336689436
      ],
      [
        "contain",
        -9.48711980026251
      ],
      [
        "\\$",
        -9.489027991776773
      ],
      [
        "Total",
        -9.489882797204201
      ],
      [
        "sort",
        -9.490592592209651
      ],
      [
        "calculated",
        -9.49080993249774
      ],
      [
        "Also",
        -9.491434803155801
      ],
      [
        "corresponds",
        -9.493170412823133
      ],
      [
        "models",
        -9.493943969893913
      ],
      [
        "matter",
        -9.495901683644576
      ],
      [
        "user",
        -9.496930266584389
      ],
      [
        "generated",
        -9.499053700752846
      ],
      [
        "99",
        -9.500595635791518
      ],
      [
        "...,",
        -9.502701245019747
      ],
      [
        "stored",
        -9.502991079808906
      ],
      [
        "mistake",
        -9.506970037342638
      ],
      [
        "applied",
        -9.507003422786424
      ],
      [
        "local",
        -9.508430307746092
      ],
      [
        "window",
        -9.508463015002842
      ],
      [
        "suffix",
        -9.51057893474749
      ],
      [
        "leaves",
        -9.512156965770506
      ],
      [
        "important",
        -9.512682395910844
      ],
      [
        "queue",
        -9.514776817999763
      ],
      [
        "49",
        -9.514947092064231
      ],
      [
        "highest",
        -9.515061311220254
      ],
      [
        "place",
        -9.515382823044899
      ],
      [
        "arranged",
        -9.517760222752905
      ],
      [
        "close",
        -9.517928992615953
      ],
      [
        "particle",
        -9.521289262575399
      ],
      [
        "why",
        -9.521587519580319
      ],
      [
        "takes",
        -9.521718290083948
      ],
      [
        "sign",
        -9.52223181646402
      ],
      [
        "want",
        -9.5222852995055
      ],
      [
        "200",
        -9.522381146889826
      ],
      [
        "75",
        -9.523937761218827
      ],
      [
        "a_j",
        -9.52414463299473
      ],
      [
        "Else",
        -9.524478465670704
      ],
      [
        "subtract",
        -9.525904643068008
      ],
      [
        "hold",
        -9.526681881719902
      ],
      [
        "select",
        -9.526757238674488
      ],
      [
        "incorrect",
        -9.527275790694864
      ],
      [
        "squared",
        -9.532127289999075
      ],
      [
        "strings",
        -9.5333952294562
      ],
      [
        "unit",
        -9.53645744145435
      ],
      [
        "xmath8",
        -9.536805637447687
      ],
      [
        "white",
        -9.536982214513936
      ],
      [
        "ensure",
        -9.537705841787911
      ],
      [
        "\\(\\",
        -9.538170306194603
      ],
      [
        "enough",
        -9.53900745258732
      ],
      [
        "covered",
        -9.539395146291687
      ],
      [
        "infinity",
        -9.540302442370495
      ],
      [
        "spectrum",
        -9.540680341459764
      ],
      [
        "symmetric",
        -9.548452408226073
      ],
      [
        "45",
        -9.548727365078904
      ],
      [
        "Read",
        -9.551014409677405
      ],
      [
        "needs",
        -9.552319376201876
      ],
      [
        "cover",
        -9.555173586853858
      ],
      [
        "help",
        -9.557159658671436
      ],
      [
        "spaces",
        -9.557809346599969
      ],
      [
        "fraction",
        -9.558710162946792
      ],
      [
        "symmetry",
        -9.559995736041854
      ],
      [
        "golf",
        -9.561741749161452
      ],
      [
        "28",
        -9.562344145464957
      ],
      [
        "visited",
        -9.564043408946377
      ],
      [
        "candidates",
        -9.56577995003141
      ],
      [
        "study",
        -9.566078270198771
      ],
      [
        "entries",
        -9.56651711315519
      ],
      [
        "able",
        -9.567685188194273
      ],
      [
        "Okay",
        -9.567910261215554
      ],
      [
        "diameter",
        -9.573426753515383
      ],
      [
        "directions",
        -9.573644280737845
      ],
      [
        "≠",
        -9.576650979540203
      ],
      [
        "aligned",
        -9.579355079501866
      ],
      [
        "period",
        -9.579390949378281
      ],
      [
        "wave",
        -9.580954465973402
      ],
      [
        "removed",
        -9.582604431619238
      ],
      [
        "gas",
        -9.586689448356738
      ],
      [
        "1e9",
        -9.586973486034871
      ],
      [
        "correctly",
        -9.587608117142041
      ],
      [
        "information",
        -9.587621591766856
      ],
      [
        "##",
        -9.58920957921903
      ],
      [
        "cannot",
        -9.590929130620527
      ],
      [
        "cut",
        -9.592576471228599
      ],
      [
        "checking",
        -9.592845259129042
      ],
      [
        "programming",
        -9.594417065247736
      ],
      [
        "perform",
        -9.596055035121601
      ],
      [
        "ends",
        -9.598844364531026
      ],
      [
        "middle",
        -9.601689432740036
      ],
      [
        "xmath9",
        -9.604869110896368
      ],
      [
        "remove",
        -9.60536726385422
      ],
      [
        "opposite",
        -9.606722769429458
      ],
      [
        "phi",
        -9.607320322986324
      ],
      [
        "build",
        -9.60736859534879
      ],
      [
        "series",
        -9.60773539052643
      ],
      [
        "shorter",
        -9.608518502614736
      ],
      [
        "resulting",
        -9.609504652659679
      ],
      [
        "ordered",
        -9.613286268777063
      ],
      [
        "quadratic",
        -9.615159876989395
      ],
      [
        "comes",
        -9.616630389087158
      ],
      [
        "remainder",
        -9.616785972230069
      ],
      [
        "dimensional",
        -9.618946990806284
      ],
      [
        "complete",
        -9.619544955115597
      ],
      [
        "remains",
        -9.620278263715953
      ],
      [
        "divide",
        -9.621805202248893
      ],
      [
        "True",
        -9.62245382027859
      ],
      [
        "together",
        -9.6237335545904
      ],
      [
        "building",
        -9.624259506535177
      ],
      [
        "Sum",
        -9.625273890899942
      ],
      [
        "inequality",
        -9.626317486631528
      ],
      [
        "described",
        -9.62663916327204
      ],
      [
        "beyond",
        -9.627509225462257
      ],
      [
        "collect",
        -9.632523757846576
      ],
      [
        "returns",
        -9.63263959971617
      ],
      [
        "constraint",
        -9.635420917668384
      ],
      [
        "overlap",
        -9.635882657789782
      ],
      [
        "interaction",
        -9.637563161949057
      ],
      [
        "respect",
        -9.639718792824844
      ],
      [
        "related",
        -9.641594183691666
      ],
      [
        "shortest",
        -9.644798425839719
      ],
      [
        "additional",
        -9.645062542897334
      ],
      [
        "xmath10",
        -9.648586730234124
      ],
      [
        "disk",
        -9.648737709260065
      ],
      [
        "ceil",
        -9.65016561892085
      ],
      [
        "expressed",
        -9.650623676489225
      ],
      [
        "48",
        -9.650738688252542
      ],
      [
        "efficient",
        -9.651883221835346
      ],
      [
        "entry",
        -9.653053306607255
      ],
      [
        "cout",
        -9.654118061123807
      ],
      [
        "shift",
        -9.657006934458437
      ],
      [
        "multiply",
        -9.658753252634527
      ],
      [
        "longer",
        -9.661141780313185
      ],
      [
        "assign",
        -9.662237031963844
      ],
      [
        "options",
        -9.663165935758029
      ],
      [
        ")^{",
        -9.668150250359519
      ],
      [
        "inner",
        -9.668562690803691
      ],
      [
        "call",
        -9.668605101628279
      ],
      [
        "apply",
        -9.669216208816039
      ],
      [
        "open",
        -9.670294632006264
      ],
      [
        ")*(",
        -9.670361197818368
      ],
      [
        "systems",
        -9.67095904872108
      ],
      [
        "label",
        -9.671448924550505
      ],
      [
        "2000",
        -9.672364560253435
      ],
      [
        "J",
        -9.67416878037741
      ],
      [
        "derivative",
        -9.675945006046762
      ],
      [
        "sequences",
        -9.679558046015384
      ],
      [
        "blue",
        -9.680953076683151
      ],
      [
        "partition",
        -9.681527897241233
      ],
      [
        "wrong",
        -9.682219905301721
      ],
      [
        "central",
        -9.682559534518902
      ],
      [
        "₂",
        -9.682696655561319
      ],
      [
        "256",
        -9.683709337435493
      ],
      [
        "face",
        -9.68624868493067
      ],
      [
        "match",
        -9.686680712227215
      ],
      [
        "alpha",
        -9.688788977279833
      ],
      [
        "outside",
        -9.689034587599323
      ],
      [
        "cube",
        -9.68967024546229
      ],
      [
        "increase",
        -9.69051966643977
      ],
      [
        "going",
        -9.69122731399316
      ],
      [
        "equals",
        -9.691716209524246
      ],
      [
        "whose",
        -9.695657194477928
      ],
      [
        "evolution",
        -9.696069512535466
      ],
      [
        "class",
        -9.696397920804548
      ],
      [
        "generating",
        -9.698680390563014
      ],
      [
        "runs",
        -9.698993417344603
      ],
      [
        "numerical",
        -9.700215049822663
      ],
      [
        "box",
        -9.704580974261857
      ],
      [
        "lead",
        -9.707184120290124
      ],
      [
        "LCA",
        -9.707558800176113
      ],
      [
        "loops",
        -9.708142661753108
      ],
      [
        "substitution",
        -9.712723226889857
      ],
      [
        "events",
        -9.713717571844747
      ],
      [
        "letter",
        -9.713820699821047
      ],
      [
        "effective",
        -9.714572630571318
      ],
      [
        "fourth",
        -9.716186327631506
      ],
      [
        "occurs",
        -9.717125864398472
      ],
      [
        "ways",
        -9.71783776340533
      ],
      [
        "near",
        -9.720463830275468
      ],
      [
        "byte",
        -9.722360209088105
      ],
      [
        "xmath11",
        -9.722504893844498
      ],
      [
        "seen",
        -9.722641653637645
      ],
      [
        "consistent",
        -9.722645192126754
      ],
      [
        "approximation",
        -9.723932808461463
      ],
      [
        "plan",
        -9.72493513998503
      ],
      [
        "expansion",
        -9.725239499590025
      ],
      [
        "char",
        -9.726340859061857
      ],
      [
        "cluster",
        -9.726365624944545
      ],
      [
        "called",
        -9.728931010462079
      ],
      [
        "flux",
        -9.72899807923465
      ],
      [
        "±",
        -9.729724918057931
      ],
      [
        "update",
        -9.73462224012646
      ],
      [
        "relative",
        -9.737939660520134
      ],
      [
        "=>",
        -9.7388425054628
      ],
      [
        "leads",
        -9.739935165075828
      ],
      [
        "iteration",
        -9.741566655259033
      ],
      [
        "inverse",
        -9.741599289920678
      ],
      [
        "rank",
        -9.741820208700727
      ],
      [
        "You",
        -9.743007997454129
      ],
      [
        "tangent",
        -9.744083516426251
      ],
      [
        "provide",
        -9.746280187897941
      ],
      [
        "scenario",
        -9.747590111502275
      ],
      [
        "29",
        -9.752732906898913
      ],
      [
        "Otherwise",
        -9.753268748890598
      ],
      [
        "perpendicular",
        -9.755678723566982
      ],
      [
        "speed",
        -9.756644860712623
      ],
      [
        "others",
        -9.756674627087333
      ],
      [
        "xmath13",
        -9.757845304509104
      ],
      [
        "likely",
        -9.758903937683707
      ],
      [
        "xmath12",
        -9.761100158527361
      ],
      [
        "infty",
        -9.761916337070708
      ],
      [
        "days",
        -9.762519238555921
      ],
      [
        "pass",
        -9.763160359061965
      ],
      [
        "union",
        -9.76316584266557
      ],
      [
        "alternative",
        -9.763209599584993
      ],
      [
        "express",
        -9.76323678606155
      ],
      [
        "zeros",
        -9.763876606508687
      ],
      [
        "lattice",
        -9.764650386317358
      ],
      [
        "coupling",
        -9.765056224176442
      ],
      [
        "making",
        -9.76563085148659
      ],
      [
        "electron",
        -9.767594588484018
      ],
      [
        "shape",
        -9.768377214629892
      ],
      [
        "Here",
        -9.769230500171822
      ],
      [
        "possibly",
        -9.770526161060776
      ],
      [
        "assigned",
        -9.773604851525644
      ],
      [
        "challenge",
        -9.774376248471
      ],
      [
        "recall",
        -9.775908870379633
      ],
      [
        "addition",
        -9.778746641904153
      ],
      [
        "pre",
        -9.779760866258531
      ],
      [
        "construct",
        -9.781334690292745
      ],
      [
        "Case",
        -9.78377408001603
      ],
      [
        "Looking",
        -9.784877026594799
      ],
      [
        "','",
        -9.785102609523683
      ],
      [
        "normal",
        -9.787037258453429
      ],
      [
        "observations",
        -9.787108562969605
      ],
      [
        "OR",
        -9.792483638229728
      ],
      [
        "division",
        -9.793273532042516
      ],
      [
        "xmath14",
        -9.79435130688807
      ],
      [
        "ring",
        -9.795016920078675
      ],
      [
        "angles",
        -9.79558645555625
      ],
      [
        "1e6",
        -9.796023154753302
      ],
      [
        "built",
        -9.79629756169277
      ],
      [
        "All",
        -9.798795279739679
      ],
      [
        "behavior",
        -9.799433274149813
      ],
      [
        "several",
        -9.800130837016255
      ],
      [
        "movement",
        -9.804797310044277
      ],
      [
        "())",
        -9.806409147612525
      ],
      [
        "strong",
        -9.80740543723445
      ],
      [
        "outputs",
        -9.808892576137795
      ],
      [
        "momentum",
        -9.812179799130599
      ],
      [
        "compare",
        -9.812502717475514
      ],
      [
        "towards",
        -9.812823202430373
      ],
      [
        "80",
        -9.814218182344163
      ],
      [
        "differences",
        -9.81424900448282
      ],
      [
        "included",
        -9.814346591028615
      ],
      [
        "curve",
        -9.814504090854674
      ],
      [
        "missing",
        -9.817059960407791
      ],
      [
        "maximal",
        -9.818903856299753
      ],
      [
        "xmath15",
        -9.8204092766757
      ],
      [
        "possibilities",
        -9.822284623332786
      ],
      [
        "sufficient",
        -9.822445619298858
      ],
      [
        "minimize",
        -9.82590805015306
      ],
      [
        "quad",
        -9.827392942487718
      ],
      [
        "absolute",
        -9.82756007769626
      ],
      [
        "maximize",
        -9.827772901120536
      ],
      [
        "merged",
        -9.827941965302527
      ],
      [
        "partial",
        -9.828094017968159
      ],
      [
        "account",
        -9.828110707940109
      ],
      [
        "derived",
        -9.828230184321265
      ],
      [
        "provided",
        -9.829036311300978
      ],
      [
        "blocks",
        -9.829325487222714
      ],
      [
        "effects",
        -9.829697251791663
      ],
      [
        "configuration",
        -9.830585586010194
      ],
      [
        "overall",
        -9.832128309357701
      ],
      [
        "这",
        -9.832319324017648
      ],
      [
        "xmath16",
        -9.834612784893753
      ],
      [
        "divisor",
        -9.836561022564165
      ],
      [
        "become",
        -9.837341364116442
      ],
      [
        "begin",
        -9.838385440179808
      ],
      [
        "a_1",
        -9.83892700951361
      ],
      [
        "substrings",
        -9.84414675966749
      ],
      [
        "From",
        -9.844385182187988
      ],
      [
        "definition",
        -9.844589452234757
      ],
      [
        "\\):",
        -9.84480600680457
      ],
      [
        "arrange",
        -9.844825553524073
      ],
      [
        "store",
        -9.847868902838226
      ],
      [
        "dynamic",
        -9.850166867560475
      ],
      [
        "description",
        -9.851920667104064
      ],
      [
        "rules",
        -9.852710951985763
      ],
      [
        "satisfies",
        -9.854268005637563
      ],
      [
        "galaxy",
        -9.856098089523712
      ],
      [
        "combinations",
        -9.856746345611269
      ],
      [
        "otherwise",
        -9.858863939778447
      ],
      [
        "particles",
        -9.85996892559859
      ],
      [
        "achieved",
        -9.860068898315188
      ],
      [
        "name",
        -9.86030937858938
      ],
      [
        "infinite",
        -9.86193003760185
      ],
      [
        "Sample",
        -9.863175169613204
      ],
      [
        "separate",
        -9.86343994226392
      ],
      [
        "neighbor",
        -9.864093901765402
      ],
      [
        "acceptable",
        -9.864467789529403
      ],
      [
        "a_n",
        -9.86458755192019
      ],
      [
        "</",
        -9.864965675443203
      ],
      [
        "command",
        -9.865347697458937
      ],
      [
        "matching",
        -9.86754017679549
      ],
      [
        "xmath17",
        -9.869186498771588
      ],
      [
        "representation",
        -9.87030222118492
      ],
      [
        "ABC",
        -9.870480105875519
      ],
      [
        "gap",
        -9.870867804366355
      ],
      [
        "implement",
        -9.871644332326555
      ],
      [
        "xmath18",
        -9.872766340699313
      ],
      [
        "neighbors",
        -9.873524939934361
      ],
      [
        "mod3",
        -9.873661005226683
      ],
      [
        ")),",
        -9.874833263120273
      ],
      [
        "contributions",
        -9.875024996070561
      ],
      [
        "approximately",
        -9.87653183299746
      ],
      [
        "counted",
        -9.876662990377246
      ],
      [
        "probably",
        -9.87831126585038
      ],
      [
        "flip",
        -9.878319876957526
      ],
      [
        ")).",
        -9.883120439877867
      ],
      [
        "p_",
        -9.883186216033176
      ],
      [
        "implementation",
        -9.88350754775635
      ],
      [
        "ε",
        -9.883721969335484
      ],
      [
        "core",
        -9.883745277998965
      ],
      [
        "strategy",
        -9.884860611241306
      ],
      [
        "recursive",
        -9.885385684238498
      ],
      [
        "bar",
        -9.888245246483793
      ],
      [
        "peak",
        -9.889647626013758
      ],
      [
        "earliest",
        -9.892077950870434
      ],
      [
        "slope",
        -9.892780570423135
      ],
      [
        "xmath19",
        -9.893061086264806
      ],
      [
        "combined",
        -9.893870102130833
      ],
      [
        "memory",
        -9.89406048859061
      ],
      [
        "goes",
        -9.894133890051874
      ],
      [
        "xmath20",
        -9.894260782330448
      ],
      [
        "regex",
        -9.89563958963108
      ],
      [
        "And",
        -9.898037985242528
      ],
      [
        "S_",
        -9.900165932657778
      ],
      [
        "compared",
        -9.902041090587518
      ],
      [
        "lemma",
        -9.905608795272434
      ],
      [
        "500",
        -9.906423046573062
      ],
      [
        "rule",
        -9.908084988766568
      ],
      [
        "}{\\",
        -9.909465230942104
      ],
      [
        "[]",
        -9.911157019814118
      ],
      [
        "hash",
        -9.911328376272992
      ],
      [
        "iterate",
        -9.91172481698033
      ],
      [
        "c_i",
        -9.912914697368269
      ],
      [
        "120",
        -9.913480539312523
      ],
      [
        "recurrence",
        -9.914065417552653
      ],
      [
        "body",
        -9.915539744692408
      ],
      [
        "similarly",
        -9.916216264407355
      ],
      [
        "dependence",
        -9.916506029363838
      ],
      [
        "action",
        -9.917206128555579
      ],
      [
        "hard",
        -9.919735313658924
      ],
      [
        "helpful",
        -9.924135123939367
      ],
      [
        "makes",
        -9.92478321456684
      ],
      [
        "lex",
        -9.925057851727109
      ],
      [
        "correlation",
        -9.92565040882966
      ],
      [
        "having",
        -9.926177776082838
      ],
      [
        "sources",
        -9.927611733269616
      ],
      [
        "adds",
        -9.933173952299148
      ],
      [
        "φ",
        -9.933495461223485
      ],
      [
        "spectra",
        -9.933842772147598
      ],
      [
        "_count",
        -9.935017867666435
      ],
      [
        "optical",
        -9.93527313286199
      ],
      [
        "stellar",
        -9.936489351895034
      ],
      [
        "_val",
        -9.93702984506907
      ],
      [
        "arrangement",
        -9.937570207737211
      ],
      [
        "affect",
        -9.93809813398482
      ],
      [
        "represents",
        -9.938751346466438
      ],
      [
        "applying",
        -9.939340944880803
      ],
      [
        "individual",
        -9.940004746760177
      ],
      [
        "forming",
        -9.940009367976073
      ],
      [
        "calculations",
        -9.940939673896596
      ],
      [
        "Step",
        -9.941161120086573
      ],
      [
        "regardless",
        -9.941205339460423
      ],
      [
        "ending",
        -9.942174711593184
      ],
      [
        "arbitrary",
        -9.94250240295498
      ],
      [
        "units",
        -9.943326975015745
      ],
      [
        "associated",
        -9.945072797709807
      ],
      [
        "min_",
        -9.946603440896656
      ],
      [
        "replace",
        -9.94672823173711
      ],
      [
        "closed",
        -9.947174630362296
      ],
      [
        "spectral",
        -9.947669478290626
      ],
      [
        "val",
        -9.947872283882308
      ],
      [
        "chars",
        -9.948885220395995
      ],
      [
        "though",
        -9.94897017578997
      ],
      [
        "reduced",
        -9.949338363678084
      ],
      [
        "choices",
        -9.949659169088553
      ],
      [
        "Like",
        -9.950873935946131
      ],
      [
        "triangles",
        -9.951119072489039
      ],
      [
        "keep",
        -9.951751079770366
      ],
      [
        "False",
        -9.952352825870161
      ],
      [
        "city",
        -9.95312167520233
      ],
      [
        "version",
        -9.953294807969787
      ],
      [
        "prev",
        -9.955214694800697
      ],
      [
        "MST",
        -9.957071414102643
      ],
      [
        "midpoint",
        -9.957500352709875
      ],
      [
        "task",
        -9.960652484931462
      ],
      [
        "forward",
        -9.96075623701447
      ],
      [
        "outer",
        -9.9630868382916
      ],
      [
        "straightforward",
        -9.963650639335032
      ],
      [
        "ranges",
        -9.96375707187085
      ],
      [
        "origin",
        -9.965191560115672
      ],
      [
        "twice",
        -9.965844323815176
      ],
      [
        "formation",
        -9.966337213297793
      ],
      [
        "Take",
        -9.967599836841032
      ],
      [
        "score",
        -9.968362216298551
      ],
      [
        "在",
        -9.971813079582134
      ],
      [
        "scattering",
        -9.971880143601807
      ],
      [
        "λ",
        -9.972988706549417
      ],
      [
        "reduce",
        -9.973141768337102
      ],
      [
        "assumption",
        -9.973268346230348
      ],
      [
        "xmath24",
        -9.973392691803642
      ],
      [
        "180",
        -9.97435895627388
      ],
      [
        "five",
        -9.974818619083969
      ],
      [
        "join",
        -9.974949105623063
      ],
      [
        "separated",
        -9.975128831701545
      ],
      [
        "xmath22",
        -9.975387260617925
      ],
      [
        "How",
        -9.976765152094783
      ],
      [
        "35",
        -9.978978290357148
      ],
      [
        "xmath21",
        -9.980024807484332
      ],
      [
        "containing",
        -9.980727736533598
      ],
      [
        "clear",
        -9.981095287205719
      ],
      [
        "xmath23",
        -9.981916826501491
      ],
      [
        "leq",
        -9.983268908773917
      ],
      [
        "thought",
        -9.984350626381767
      ],
      [
        "identity",
        -9.985673452214032
      ],
      [
        "65",
        -9.986343409891676
      ],
      [
        "hole",
        -9.988092236057032
      ],
      [
        "setting",
        -9.988681730257339
      ],
      [
        "subarray",
        -9.99160381031856
      ],
      [
        "Problem",
        -9.99239346223856
      ],
      [
        "}}{",
        -9.992423495752222
      ],
      [
        "presence",
        -9.994051218479765
      ],
      [
        "regular",
        -9.995370601797848
      ],
      [
        "substituting",
        -9.995622634587317
      ],
      [
        "decay",
        -9.99907303558077
      ],
      [
        "xmath25",
        -9.999808028468303
      ],
      [
        "leaf",
        -10.001227107368337
      ],
      [
        "option",
        -10.002775894715889
      ],
      [
        "measured",
        -10.002952119252345
      ],
      [
        "measure",
        -10.00336424975019
      ],
      [
        "xmath26",
        -10.005505021565092
      ],
      [
        "next_",
        -10.005708209322203
      ],
      [
        "parallel",
        -10.00576184866242
      ],
      [
        "arc",
        -10.006453618514968
      ],
      [
        "exit",
        -10.006962815480195
      ],
      [
        "prev_",
        -10.008246893224522
      ],
      [
        "come",
        -10.008998302967923
      ],
      [
        "link",
        -10.009812959181481
      ],
      [
        "appears",
        -10.011758207357683
      ],
      [
        "fields",
        -10.012027107047187
      ],
      [
        "perfect",
        -10.015613971758942
      ],
      [
        "significant",
        -10.017075061659764
      ],
      [
        "xmath27",
        -10.019057037785647
      ],
      [
        "natural",
        -10.01960923219652
      ],
      [
        "merge",
        -10.021173687407211
      ],
      [
        "Multiply",
        -10.02152998278401
      ],
      [
        "presented",
        -10.021820526914409
      ],
      [
        "quine",
        -10.027538371890099
      ],
      [
        "count_",
        -10.027712210489538
      ],
      [
        "splitting",
        -10.02792514811349
      ],
      [
        "his",
        -10.028796148481787
      ],
      [
        "active",
        -10.029553440166444
      ],
      [
        "pop",
        -10.03049854078131
      ],
      [
        "xmath28",
        -10.03072922835394
      ],
      [
        "magnitude",
        -10.034671718165457
      ],
      [
        "y_i",
        -10.038087677907432
      ],
      [
        "xmath29",
        -10.041280941198355
      ],
      [
        "r_i",
        -10.043434048863174
      ],
      [
        "simulations",
        -10.043852246848942
      ],
      [
        "parse",
        -10.044950576613836
      ],
      [
        "direct",
        -10.04636147536537
      ],
      [
        "round",
        -10.046461630768071
      ],
      [
        "comparison",
        -10.047189790842689
      ],
      [
        "dimension",
        -10.04798588302027
      ],
      [
        "operators",
        -10.048372433794876
      ],
      [
        "across",
        -10.054098019651667
      ],
      [
        "distances",
        -10.054454406969326
      ],
      [
        "sense",
        -10.054560211504883
      ],
      [
        "depend",
        -10.054758818676381
      ],
      [
        "removing",
        -10.05542013324624
      ],
      [
        "();",
        -10.055804461642792
      ],
      [
        "force",
        -10.056726667564108
      ],
      [
        "adj",
        -10.059921365752059
      ],
      [
        "front",
        -10.060267638777484
      ],
      [
        "excluding",
        -10.060932790260798
      ],
      [
        "mod2",
        -10.063850303502605
      ],
      [
        "Next",
        -10.064292387703048
      ],
      [
        "balance",
        -10.066004156673834
      ],
      [
        "xmath30",
        -10.067611113433989
      ],
      [
        "estimate",
        -10.067634696069044
      ],
      [
        "board",
        -10.06787683068485
      ],
      [
        "short",
        -10.069920626854216
      ],
      [
        "necessarily",
        -10.071794277851613
      ],
      [
        "appear",
        -10.072433450277165
      ],
      [
        "palindrome",
        -10.07282576407795
      ],
      [
        "dynamics",
        -10.07330358188913
      ],
      [
        "observation",
        -10.07332935300028
      ],
      [
        "endpoints",
        -10.074254718008577
      ],
      [
        "noise",
        -10.07528507046373
      ],
      [
        "volume",
        -10.075883933030479
      ],
      [
        "card",
        -10.076889654474696
      ],
      [
        "mod4",
        -10.077807267119493
      ],
      [
        "mode",
        -10.082324738120027
      ],
      [
        "assignment",
        -10.083224117696266
      ],
      [
        "avoid",
        -10.08424323947972
      ],
      [
        "corner",
        -10.084690647100325
      ],
      [
        "37",
        -10.08493998186445
      ],
      [
        "priority",
        -10.0850456178298
      ],
      [
        "expectation",
        -10.085170351928337
      ],
      [
        "global",
        -10.085783824419893
      ],
      [
        "idx",
        -10.086732317742213
      ],
      [
        "56",
        -10.089465611568771
      ],
      [
        "proof",
        -10.089556146987336
      ],
      [
        "xmath33",
        -10.089766790120333
      ],
      [
        "property",
        -10.089804735312754
      ],
      [
        "adjacency",
        -10.091504932148489
      ],
      [
        "response",
        -10.091505919032606
      ],
      [
        "modified",
        -10.09219169248037
      ],
      [
        "push",
        -10.094835442153665
      ],
      [
        "discussed",
        -10.09536319376172
      ],
      [
        "triplet",
        -10.095889185929352
      ],
      [
        "filled",
        -10.098983521574786
      ],
      [
        "circles",
        -10.09940725304922
      ],
      [
        "satisfied",
        -10.099595525762965
      ],
      [
        "forbidden",
        -10.099781241066102
      ],
      [
        "xmath31",
        -10.100974127233435
      ],
      [
        "correspond",
        -10.101585830674233
      ],
      [
        "argument",
        -10.103820327384534
      ],
      [
        "background",
        -10.104175380284923
      ],
      [
        "Solution",
        -10.104460516040154
      ],
      [
        "depending",
        -10.105138556632138
      ],
      [
        "green",
        -10.106373867210547
      ],
      [
        "xmath60",
        -10.10936179424451
      ],
      [
        "xmath34",
        -10.111016263656596
      ],
      [
        "xmath32",
        -10.11149687014892
      ],
      [
        "special",
        -10.114100870150088
      ],
      [
        "charge",
        -10.115126721974429
      ],
      [
        "rotated",
        -10.115412201238035
      ],
      [
        "super",
        -10.116466324106227
      ],
      [
        "processes",
        -10.119322458512293
      ],
      [
        "xmath35",
        -10.119815647042385
      ],
      [
        "players",
        -10.119887235110022
      ],
      [
        "Alice",
        -10.120175944268478
      ],
      [
        "Third",
        -10.120791025977848
      ],
      [
        "hamiltonian",
        -10.121615790186597
      ],
      [
        "_str",
        -10.122699000524449
      ],
      [
        "objects",
        -10.122843253677912
      ],
      [
        "125",
        -10.122896167056648
      ],
      [
        "2e5",
        -10.123455639419786
      ],
      [
        "looking",
        -10.123463570052706
      ],
      [
        "quite",
        -10.12400078183475
      ],
      [
        "follow",
        -10.124205364613667
      ],
      [
        "xmath36",
        -10.124209220022038
      ],
      [
        "matrices",
        -10.125898592701983
      ],
      [
        "gamma",
        -10.12785599516743
      ],
      [
        "continuous",
        -10.128525146333185
      ],
      [
        "xmath45",
        -10.128679984269867
      ],
      [
        "∫",
        -10.128718850265948
      ],
      [
        "−",
        -10.129266386321767
      ],
      [
        "verify",
        -10.130034750513918
      ],
      [
        "scaling",
        -10.131025523400915
      ],
      [
        "xmath55",
        -10.131979555379475
      ],
      [
        "clusters",
        -10.133075978884378
      ],
      [
        "||",
        -10.133267152781697
      ],
      [
        "finally",
        -10.133734032257703
      ],
      [
        "xmath57",
        -10.133907126305644
      ],
      [
        "d_i",
        -10.134458989711115
      ],
      [
        "physical",
        -10.13457521193748
      ],
      [
        "和",
        -10.134635281683098
      ],
      [
        "experimental",
        -10.135019315830396
      ],
      [
        "xmath37",
        -10.136527612283905
      ],
      [
        "xmath46",
        -10.137486684367127
      ],
      [
        "confirm",
        -10.139235515158875
      ],
      [
        "*(-",
        -10.140273102404542
      ],
      [
        "xmath53",
        -10.14101225190865
      ],
      [
        "goal",
        -10.141588275067674
      ],
      [
        "counting",
        -10.14253910075794
      ],
      [
        "event",
        -10.14343911058044
      ],
      [
        "subsequence",
        -10.144741141949883
      ],
      [
        "xmath56",
        -10.145162233189525
      ],
      [
        "NO",
        -10.145440374664544
      ],
      [
        "rem",
        -10.146544594538726
      ],
      [
        "computation",
        -10.146925986983756
      ],
      [
        "swaps",
        -10.147190678408563
      ],
      [
        "xmath38",
        -10.148945089066855
      ],
      [
        "delta_",
        -10.148977331863076
      ],
      [
        "coprime",
        -10.149259218482971
      ],
      [
        "xmath49",
        -10.14951009438095
      ],
      [
        "dependent",
        -10.149823359752618
      ],
      [
        "although",
        -10.150279083242747
      ],
      [
        "ground",
        -10.150560354399476
      ],
      [
        "CD",
        -10.151266788264238
      ],
      [
        "xmath54",
        -10.152247969532437
      ],
      [
        "exceed",
        -10.152826508525331
      ],
      [
        "tuple",
        -10.153799448331538
      ],
      [
        "xmath42",
        -10.154123494445123
      ],
      [
        "300",
        -10.154410399427682
      ],
      [
        "xmath50",
        -10.154608859390544
      ],
      [
        "xmath39",
        -10.154668140408024
      ],
      [
        "selection",
        -10.15523461553767
      ],
      [
        "xmath40",
        -10.156115088895868
      ],
      [
        "81",
        -10.156459854027794
      ],
      [
        "Correct",
        -10.157077173740058
      ],
      [
        "put",
        -10.158444875847659
      ],
      [
        "xmath47",
        -10.160018664952526
      ],
      [
        "trees",
        -10.162248334578228
      ],
      [
        "scalar",
        -10.162312449936593
      ],
      [
        "xmath59",
        -10.164458894871464
      ],
      [
        "various",
        -10.165061775042444
      ],
      [
        "xmath43",
        -10.165731907019989
      ],
      [
        "xmath62",
        -10.165760551162375
      ],
      [
        "Original",
        -10.166602574537903
      ],
      [
        "xmath52",
        -10.167136903212098
      ],
      [
        "xmath63",
        -10.167164776719938
      ],
      [
        "ssistant",
        -10.16726829960106
      ],
      [
        "v_",
        -10.168101716183058
      ],
      [
        "lengths",
        -10.168358486368426
      ],
      [
        "later",
        -10.168904813404794
      ],
      [
        "xmath44",
        -10.169464270991812
      ],
      [
        "xmath58",
        -10.17007670975475
      ],
      [
        "What",
        -10.172794620280126
      ],
      [
        "xmath48",
        -10.173077856073002
      ],
      [
        "computing",
        -10.173159932862166
      ],
      [
        "multi",
        -10.174172933937653
      ],
      [
        "amplitude",
        -10.176519785212399
      ],
      [
        "mex",
        -10.17826669839338
      ],
      [
        "photon",
        -10.178708593335415
      ],
      [
        "measurements",
        -10.179083948783536
      ],
      [
        "rather",
        -10.179652677237597
      ],
      [
        "collision",
        -10.181411553376108
      ],
      [
        "merging",
        -10.181968684916143
      ],
      [
        ")!",
        -10.182614317786681
      ],
      [
        "law",
        -10.18286496788076
      ],
      [
        "strictly",
        -10.183974577641555
      ],
      [
        "xmath64",
        -10.185377099348447
      ],
      [
        "Bob",
        -10.185387155103598
      ],
      [
        "wins",
        -10.187091334118625
      ],
      [
        "cyclic",
        -10.188378725795417
      ],
      [
        "produce",
        -10.190084238666696
      ],
      [
        "longest",
        -10.191039448796468
      ],
      [
        "motion",
        -10.191912442795049
      ],
      [
        "slow",
        -10.19203192926746
      ],
      [
        "decimal",
        -10.192654677783201
      ],
      [
        "const",
        -10.193180297939078
      ],
      [
        "signal",
        -10.193852132438701
      ],
      [
        "network",
        -10.194256405198617
      ],
      [
        "LCM",
        -10.194319292367899
      ],
      [
        "man",
        -10.194946598542348
      ],
      [
        "expressions",
        -10.195087066002475
      ],
      [
        "xmath65",
        -10.195481057726091
      ],
      [
        "nothing",
        -10.195612928523524
      ],
      [
        "2π",
        -10.195869071764154
      ],
      [
        "angular",
        -10.198686316005745
      ],
      [
        "xmath51",
        -10.199205347436337
      ],
      [
        "structures",
        -10.200550668652689
      ],
      [
        "initially",
        -10.202802522253073
      ],
      [
        "xmath61",
        -10.204136664650559
      ],
      [
        "rev",
        -10.204245478707191
      ],
      [
        "YES",
        -10.205016095546855
      ],
      [
        "AD",
        -10.205315796576997
      ],
      [
        "Start",
        -10.206805158602608
      ],
      [
        "因此",
        -10.207024057391553
      ],
      [
        "shifted",
        -10.207046811627928
      ],
      [
        "quark",
        -10.209301589234322
      ],
      [
        "simulation",
        -10.210734192107513
      ],
      [
        "inversion",
        -10.211253642891181
      ],
      [
        "xmath41",
        -10.21207020135841
      ],
      [
        "xmath66",
        -10.212445480056546
      ],
      [
        "modes",
        -10.213088213222202
      ],
      [
        "quickly",
        -10.21641011258067
      ],
      [
        "F_",
        -10.219369061130358
      ],
      [
        "solid",
        -10.21966694504333
      ],
      [
        "simply",
        -10.219939175509838
      ],
      [
        "layers",
        -10.220110694879537
      ],
      [
        "cards",
        -10.221136162834025
      ],
      [
        "inclusion",
        -10.221609746002624
      ],
      [
        "There",
        -10.22234200004808
      ],
      [
        "400",
        -10.222619774267745
      ],
      [
        "96",
        -10.223292435901419
      ],
      [
        "xmath67",
        -10.223761102529055
      ],
      [
        "beta",
        -10.224591643993088
      ],
      [
        "39",
        -10.224710935727483
      ],
      [
        "dictionary",
        -10.226291365481096
      ],
      [
        "solving",
        -10.226684230319364
      ],
      [
        "intersect",
        -10.227869740607
      ],
      [
        "reason",
        -10.227903138427838
      ],
      [
        "combining",
        -10.229021427305735
      ],
      [
        "clockwise",
        -10.229220111267285
      ],
      [
        "classical",
        -10.229832711345125
      ],
      [
        "dimensions",
        -10.231093385536807
      ],
      [
        "70",
        -10.231242709909697
      ],
      [
        "splits",
        -10.233229840748024
      ],
      [
        "cities",
        -10.234233031468538
      ],
      [
        "abc",
        -10.238400320968184
      ],
      [
        "weak",
        -10.238916610645262
      ],
      [
        "⁴",
        -10.239162069156661
      ],
      [
        "her",
        -10.239598887335205
      ],
      [
        "subsequent",
        -10.240390676801052
      ],
      [
        "whenever",
        -10.242235898604354
      ],
      [
        "auto",
        -10.242337031468825
      ],
      [
        "arxiv",
        -10.24313702848873
      ],
      [
        "xmath68",
        -10.243372406089676
      ],
      [
        "occurrences",
        -10.244999786671467
      ],
      [
        "'+'",
        -10.245277500296787
      ],
      [
        "format",
        -10.2461342710804
      ],
      [
        "xmath70",
        -10.248392110865746
      ],
      [
        "directed",
        -10.248822342967536
      ],
      [
        "Left",
        -10.25121511419898
      ],
      [
        "play",
        -10.251820631833521
      ],
      [
        "transformation",
        -10.251914455881545
      ],
      [
        "context",
        -10.252420043248955
      ],
      [
        ":**",
        -10.252690182363509
      ],
      [
        "extended",
        -10.253248804508564
      ],
      [
        "xmath69",
        -10.253779997885214
      ],
      [
        "AND",
        -10.254108903392602
      ],
      [
        "luminosity",
        -10.254789961002597
      ],
      [
        "domain",
        -10.255360511125797
      ],
      [
        "Assuming",
        -10.256763533585593
      ],
      [
        "object",
        -10.257174140556481
      ],
      [
        "128",
        -10.258184533571825
      ],
      [
        "types",
        -10.259961580859246
      ],
      [
        "Note",
        -10.260247224448571
      ],
      [
        "interesting",
        -10.26083565540853
      ],
      [
        "trivial",
        -10.261134048803658
      ],
      [
        "β",
        -10.261930567651028
      ],
      [
        "threshold",
        -10.262490122560834
      ],
      [
        "Using",
        -10.263643427966159
      ],
      [
        "straight",
        -10.264363928665583
      ],
      [
        "precisely",
        -10.265682991027575
      ],
      [
        "a_2",
        -10.266845392784855
      ],
      [
        "connect",
        -10.268263608077113
      ],
      [
        "perimeter",
        -10.268347446752836
      ],
      [
        "blocked",
        -10.269383619076322
      ],
      [
        "determinant",
        -10.27118942226813
      ],
      [
        "var",
        -10.273082627932192
      ],
      [
        "num",
        -10.273337844938313
      ],
      [
        "possibility",
        -10.27376485094391
      ],
      [
        "methods",
        -10.273891014707964
      ],
      [
        "temp",
        -10.276422948584958
      ],
      [
        "parentheses",
        -10.278799762398787
      ],
      [
        "_max",
        -10.279713712489912
      ],
      [
        "occur",
        -10.280677638349506
      ],
      [
        "reaches",
        -10.28118269335377
      ],
      [
        "Right",
        -10.281629645919157
      ],
      [
        "heap",
        -10.282103763141482
      ],
      [
        "beam",
        -10.282507724510834
      ],
      [
        "counter",
        -10.283909362639974
      ],
      [
        "piece",
        -10.284020794660444
      ],
      [
        "recursively",
        -10.285050887214416
      ],
      [
        "replaced",
        -10.286373664845062
      ],
      [
        "total_",
        -10.286510748316783
      ],
      [
        "physics",
        -10.28702311653862
      ],
      [
        "passes",
        -10.287312507384549
      ],
      [
        "capacity",
        -10.287904938868285
      ],
      [
        "properly",
        -10.28915534357699
      ],
      [
        "channel",
        -10.292848280427421
      ],
      [
        "invariant",
        -10.293171793222541
      ],
      [
        "extra",
        -10.293797423553555
      ],
      [
        "decreases",
        -10.2947810819775
      ],
      [
        "amount",
        -10.296871916220004
      ],
      [
        "internal",
        -10.301358630108457
      ],
      [
        "_j",
        -10.301787951714592
      ],
      [
        "97",
        -10.303765851075317
      ],
      [
        "·",
        -10.304396315526839
      ],
      [
        "xmath73",
        -10.304593337391179
      ],
      [
        "thermal",
        -10.304981022916277
      ],
      [
        "&&",
        -10.306618566669115
      ],
      [
        "x_j",
        -10.309631279802886
      ],
      [
        "rational",
        -10.31070358843561
      ],
      [
        "difficult",
        -10.311077745761757
      ],
      [
        "999",
        -10.31280211125651
      ],
      [
        "consists",
        -10.314949309295503
      ],
      [
        "curves",
        -10.315157728484087
      ],
      [
        "gauge",
        -10.31540218517967
      ],
      [
        "energies",
        -10.31575559986885
      ],
      [
        "resolution",
        -10.317457750999303
      ],
      [
        "47",
        -10.317578443442082
      ],
      [
        "Add",
        -10.319098771290781
      ],
      [
        "radio",
        -10.32020159740211
      ],
      [
        "inspired",
        -10.320672499690811
      ],
      [
        "^{\\",
        -10.320878347079583
      ],
      [
        "file",
        -10.322439417740016
      ],
      [
        "scaled",
        -10.324604038728525
      ],
      [
        "forms",
        -10.324811228054697
      ],
      [
        "mathbb",
        -10.325586913887518
      ],
      [
        "instruction",
        -10.32592113317414
      ],
      [
        "None",
        -10.326814938953111
      ],
      [
        "xmath71",
        -10.32695916409967
      ],
      [
        "tricky",
        -10.327238804695028
      ],
      [
        "xmath74",
        -10.328301342422378
      ],
      [
        "closest",
        -10.328787337641616
      ],
      [
        "xmath72",
        -10.329060615168743
      ],
      [
        "functional",
        -10.329628809548542
      ],
      [
        "elif",
        -10.329947323035357
      ],
      [
        "assumed",
        -10.330524741739923
      ],
      [
        "72",
        -10.33091102720258
      ],
      [
        "mirror",
        -10.331474415180283
      ],
      [
        "covers",
        -10.332860545602793
      ],
      [
        "dist",
        -10.334298773732721
      ],
      [
        "col",
        -10.335474198994678
      ],
      [
        "xmath75",
        -10.335944981331258
      ],
      [
        "55",
        -10.336420715739436
      ],
      [
        "outline",
        -10.33648055672937
      ],
      [
        "masses",
        -10.336812281424212
      ],
      [
        "interactions",
        -10.336836414253156
      ],
      [
        "meaning",
        -10.341552844031513
      ],
      [
        "median",
        -10.342214683005123
      ],
      [
        "xmath76",
        -10.34361789669956
      ],
      [
        "bisector",
        -10.34535870335137
      ],
      [
        "98",
        -10.345888876118265
      ],
      [
        "logic",
        -10.346440824552834
      ],
      [
        "exp",
        -10.346840163260088
      ],
      [
        "sphere",
        -10.346903781534452
      ],
      [
        "indicates",
        -10.346960345619047
      ],
      [
        "tokens",
        -10.348052114493907
      ],
      [
        "increment",
        -10.348306106373824
      ],
      [
        "redshift",
        -10.34833820757123
      ],
      [
        "involved",
        -10.349083739803673
      ],
      [
        "control",
        -10.34937907896685
      ],
      [
        "support",
        -10.35037302316956
      ],
      [
        "whole",
        -10.351525845665341
      ],
      [
        "ASCII",
        -10.351853864938168
      ],
      [
        "construction",
        -10.355980516772608
      ],
      [
        "multiples",
        -10.356919320214827
      ],
      [
        "car",
        -10.35922578234404
      ],
      [
        "regime",
        -10.360786561327707
      ],
      [
        "periodic",
        -10.361006486202578
      ],
      [
        "handled",
        -10.361807563370817
      ],
      [
        "decrease",
        -10.362294558975996
      ],
      [
        "things",
        -10.362523108928793
      ],
      [
        "xmath77",
        -10.362658101927977
      ],
      [
        "limits",
        -10.363783855313702
      ],
      [
        "1999",
        -10.364941746054049
      ],
      [
        "stdin",
        -10.366405645848632
      ],
      [
        "induced",
        -10.366784529901013
      ],
      [
        "decide",
        -10.366975610235563
      ],
      [
        "constructed",
        -10.367472779844576
      ],
      [
        "cosθ",
        -10.368822203439075
      ],
      [
        "transformed",
        -10.369082663015808
      ],
      [
        "greedy",
        -10.369305933335289
      ],
      [
        "approximate",
        -10.369651689232127
      ],
      [
        "jump",
        -10.369732558829334
      ],
      [
        "ordering",
        -10.369934236712234
      ],
      [
        "theoretical",
        -10.370225732736811
      ],
      [
        "measurement",
        -10.37086426661146
      ],
      [
        "differently",
        -10.371625266122408
      ],
      [
        "Simplif",
        -10.371816531774929
      ],
      [
        "2004",
        -10.372477566540951
      ],
      [
        "(√",
        -10.373995388714807
      ],
      [
        "involve",
        -10.374100779817352
      ],
      [
        "stuck",
        -10.374477887425625
      ],
      [
        "_prev",
        -10.378210068409366
      ],
      [
        "Well",
        -10.379090515328334
      ],
      [
        "studied",
        -10.37918412929981
      ],
      [
        "token",
        -10.381823874439755
      ],
      [
        "involving",
        -10.382079526387146
      ],
      [
        "2003",
        -10.382456377496743
      ],
      [
        "xmath78",
        -10.383108185869142
      ],
      [
        "strength",
        -10.383207481781694
      ],
      [
        "trying",
        -10.383243796893003
      ],
      [
        "performed",
        -10.383265821637904
      ],
      [
        "gain",
        -10.383610599622424
      ],
      [
        "dark",
        -10.383701699995331
      ],
      [
        "future",
        -10.383988677158786
      ],
      [
        "T_",
        -10.38573327418637
      ],
      [
        "diagram",
        -10.386956324191722
      ],
      [
        "loss",
        -10.387811908306906
      ],
      [
        "BD",
        -10.388017202952351
      ],
      [
        "turns",
        -10.389059439707694
      ],
      [
        "useful",
        -10.38925126708272
      ],
      [
        "clearly",
        -10.389290878712403
      ],
      [
        "63",
        -10.389298421373935
      ],
      [
        "decomposition",
        -10.390231720551306
      ],
      [
        "frame",
        -10.390658663495119
      ],
      [
        "2001",
        -10.39078914213437
      ],
      [
        "features",
        -10.39169852711664
      ],
      [
        "easier",
        -10.39257208041122
      ],
      [
        "geometry",
        -10.394235667821423
      ],
      [
        "old",
        -10.39535171506677
      ],
      [
        "2009",
        -10.395968379848412
      ],
      [
        "existence",
        -10.399326470879826
      ],
      [
        "external",
        -10.399644725871811
      ],
      [
        "arrays",
        -10.400163623810567
      ],
      [
        "orientation",
        -10.400216586658512
      ],
      [
        "explanation",
        -10.402914495365941
      ],
      [
        "expect",
        -10.403069526526506
      ],
      [
        "2007",
        -10.403155754944814
      ],
      [
        "push_back",
        -10.40318668860132
      ],
      [
        "xmath80",
        -10.403616262451958
      ],
      [
        "worst",
        -10.40480492138117
      ],
      [
        "Your",
        -10.406350912637711
      ],
      [
        "coverage",
        -10.406504034720351
      ],
      [
        "anything",
        -10.407315189188946
      ],
      [
        "xmath79",
        -10.407773496089286
      ],
      [
        "syntax",
        -10.409627969641408
      ],
      [
        "pixel",
        -10.410272920958642
      ],
      [
        "2005",
        -10.410637935498745
      ],
      [
        "1998",
        -10.411537484824374
      ],
      [
        "closing",
        -10.41212071415986
      ],
      [
        "describe",
        -10.412676409920886
      ],
      [
        "intermediate",
        -10.412986268586051
      ],
      [
        "early",
        -10.413523670844635
      ],
      [
        "gaussian",
        -10.414539409813722
      ],
      [
        "weights",
        -10.414619862532247
      ],
      [
        "reflection",
        -10.415739031240067
      ],
      [
        "Sort",
        -10.419870792365511
      ],
      [
        "age",
        -10.421742172632822
      ],
      [
        "multiplication",
        -10.423302879475292
      ],
      [
        "errors",
        -10.424887764533892
      ],
      [
        "t_i",
        -10.42519240904845
      ],
      [
        "selecting",
        -10.426109918699357
      ],
      [
        "notation",
        -10.426652949192283
      ],
      [
        "setup",
        -10.427588137250941
      ],
      [
        "lies",
        -10.428071014812257
      ],
      [
        "wind",
        -10.428353964293803
      ],
      [
        "equilibrium",
        -10.42842099686285
      ],
      [
        "strongly",
        -10.428581152846423
      ],
      [
        "2006",
        -10.428761551812727
      ],
      [
        "absorption",
        -10.42889669266043
      ],
      [
        "symbol",
        -10.429481411771471
      ],
      [
        "b_j",
        -10.429800703592045
      ],
      [
        "reference",
        -10.429809423756973
      ],
      [
        "fractions",
        -10.430523136387334
      ],
      [
        "。",
        -10.430937855459518
      ],
      [
        "hat",
        -10.433449731500385
      ],
      [
        "95",
        -10.433595028186886
      ],
      [
        "quotes",
        -10.433933265012659
      ],
      [
        "44",
        -10.433969958108447
      ],
      [
        "Additionally",
        -10.434141563945662
      ],
      [
        "ancestor",
        -10.436848214591798
      ],
      [
        "proper",
        -10.437679425767026
      ],
      [
        "inserting",
        -10.438007197662747
      ],
      [
        "38",
        -10.438336214775127
      ],
      [
        "ω",
        -10.440921096866495
      ],
      [
        "changing",
        -10.441236077688126
      ],
      [
        "strip",
        -10.44177903341001
      ],
      [
        "skip",
        -10.441904150711265
      ],
      [
        "bounded",
        -10.444632681056317
      ],
      [
        "lists",
        -10.44471280376278
      ],
      [
        "xmath83",
        -10.445290251782822
      ],
      [
        "best_",
        -10.44560703159905
      ],
      [
        "pressure",
        -10.445893863668648
      ],
      [
        "maps",
        -10.445983089887786
      ],
      [
        "share",
        -10.447291465558862
      ],
      [
        "panel",
        -10.449571641175993
      ],
      [
        "road",
        -10.451514584857728
      ],
      [
        "_list",
        -10.451763781687507
      ],
      [
        "recent",
        -10.452240473935612
      ],
      [
        "Format",
        -10.452641070092826
      ],
      [
        "pieces",
        -10.45368137060909
      ],
      [
        "explain",
        -10.453800099469571
      ],
      [
        "lowest",
        -10.454202152920933
      ],
      [
        "multiset",
        -10.454231152859016
      ],
      [
        "crossing",
        -10.454410816687016
      ],
      [
        "compact",
        -10.455137968047849
      ],
      [
        "profile",
        -10.45545147642161
      ],
      [
        "omega",
        -10.455803128432926
      ],
      [
        "almost",
        -10.456457777596645
      ],
      [
        "combine",
        -10.456934081984988
      ],
      [
        "person",
        -10.457467976054923
      ],
      [
        "These",
        -10.45808231389544
      ],
      [
        "xmath84",
        -10.458972236278651
      ],
      [
        "branch",
        -10.458995450375012
      ],
      [
        "population",
        -10.460259712011183
      ],
      [
        "against",
        -10.462284307203587
      ],
      [
        "involves",
        -10.462326977984015
      ],
      [
        "2002",
        -10.464623873012183
      ],
      [
        "optimized",
        -10.465171330656931
      ],
      [
        "xmath82",
        -10.465212822564947
      ],
      [
        "().",
        -10.466040134373113
      ],
      [
        "spanning",
        -10.466275891661954
      ],
      [
        "metric",
        -10.46694858637959
      ],
      [
        "2008",
        -10.467600129992379
      ],
      [
        "89",
        -10.467601541311861
      ],
      [
        "cumulative",
        -10.468191718253218
      ],
      [
        "dividing",
        -10.468423578271242
      ],
      [
        "spatial",
        -10.469047568431593
      ],
      [
        "xmath81",
        -10.469169014176122
      ],
      [
        "²/",
        -10.469180847787193
      ],
      [
        "limited",
        -10.470292310178642
      ],
      [
        "然后",
        -10.470430746721672
      ],
      [
        "Processing",
        -10.472698498828288
      ],
      [
        "xmath85",
        -10.473302590904753
      ],
      [
        "calculating",
        -10.47489375800738
      ],
      [
        "xmath88",
        -10.475198165036476
      ],
      [
        "mod5",
        -10.4763521238476
      ],
      [
        "Row",
        -10.478270271898195
      ],
      [
        "doing",
        -10.479331579083583
      ],
      [
        "differ",
        -10.480403120136963
      ],
      [
        "uniform",
        -10.480738743053779
      ],
      [
        "xmath86",
        -10.481170815118023
      ],
      [
        "scheme",
        -10.481334637799362
      ],
      [
        "carry",
        -10.481627851830792
      ],
      [
        "happen",
        -10.481686292399582
      ],
      [
        "team",
        -10.482373497410093
      ],
      [
        "production",
        -10.483314204723603
      ],
      [
        "Equation",
        -10.483942232158434
      ],
      [
        "gev",
        -10.484065489795247
      ],
      [
        "copy",
        -10.486218550828912
      ],
      [
        "/√",
        -10.487495200723052
      ],
      [
        "xmath87",
        -10.487790814499826
      ],
      [
        "Edge",
        -10.488616952226417
      ],
      [
        "composite",
        -10.489025418667618
      ],
      [
        "substitute",
        -10.48959095684833
      ],
      [
        "sigma",
        -10.489653219901154
      ],
      [
        "proposed",
        -10.490799210087108
      ],
      [
        "multiplying",
        -10.49153116603612
      ],
      [
        "anti",
        -10.493082892878501
      ],
      [
        "ensuring",
        -10.49385041100332
      ],
      [
        "radiation",
        -10.493861630247222
      ],
      [
        "s_j",
        -10.49438519523096
      ],
      [
        "exponential",
        -10.495792541977673
      ],
      [
        "reachable",
        -10.495910695784342
      ],
      [
        "2010",
        -10.496439080683942
      ],
      [
        "relevant",
        -10.496772300784816
      ],
      [
        "languages",
        -10.499942040358052
      ],
      [
        "radial",
        -10.50012738800716
      ],
      [
        "144",
        -10.500394511154706
      ],
      [
        "evaluate",
        -10.500547825386592
      ],
      [
        "nature",
        -10.502228676673068
      ],
      [
        "fluctuations",
        -10.5022293125787
      ],
      [
        "research",
        -10.502763665464707
      ],
      [
        "vary",
        -10.503577243612236
      ],
      [
        "located",
        -10.5039490520553
      ],
      [
        "xmath89",
        -10.504793165820645
      ],
      [
        "l_i",
        -10.506365696109707
      ],
      [
        "descending",
        -10.50676654564305
      ],
      [
        "ell",
        -10.506802383513282
      ],
      [
        "topological",
        -10.506980630078209
      ],
      [
        "levels",
        -10.507343237113673
      ],
      [
        "covering",
        -10.507615153470704
      ],
      [
        "studies",
        -10.508212625239823
      ],
      [
        "duplicates",
        -10.508217520063067
      ],
      [
        "2011",
        -10.5088746004957
      ],
      [
        "xmath90",
        -10.509155247246053
      ],
      [
        "equiv",
        -10.510006361036945
      ],
      [
        "frequencies",
        -10.511742902791466
      ],
      [
        "moreover",
        -10.511837766247892
      ],
      [
        "inter",
        -10.511965492683142
      ],
      [
        "agreement",
        -10.512087308188645
      ],
      [
        "dust",
        -10.512203197408764
      ],
      [
        "centroid",
        -10.512751137175712
      ],
      [
        "images",
        -10.513628105883484
      ],
      [
        "procedure",
        -10.514091682354932
      ],
      [
        "remain",
        -10.51459554688674
      ],
      [
        "RHS",
        -10.515287275683887
      ],
      [
        "255",
        -10.515532071382317
      ],
      [
        "polarization",
        -10.515999483943196
      ],
      [
        "insert",
        -10.516152132155023
      ],
      [
        "canonical",
        -10.51641539873133
      ],
      [
        "mathbf",
        -10.520020442002526
      ],
      [
        "orbit",
        -10.520956490333209
      ],
      [
        "content",
        -10.521041756545612
      ],
      [
        "universe",
        -10.523422081463055
      ],
      [
        "Grundy",
        -10.524370129419955
      ],
      [
        "57",
        -10.527305108835627
      ],
      [
        "detected",
        -10.528019799597425
      ],
      [
        "typical",
        -10.5281820000599
      ],
      [
        "rotating",
        -10.529740928487893
      ],
      [
        "insight",
        -10.529783699193272
      ],
      [
        "slightly",
        -10.529847226296429
      ],
      [
        "latter",
        -10.530831501428658
      ],
      [
        "approx",
        -10.530868838120451
      ],
      [
        "experiments",
        -10.532102500741217
      ],
      [
        "46",
        -10.532129322785952
      ],
      [
        "exceeds",
        -10.532247473536232
      ],
      [
        "east",
        -10.533192000886801
      ],
      [
        "moment",
        -10.53342633205171
      ],
      [
        "∈",
        -10.533545082066635
      ],
      [
        "B_",
        -10.533916571243775
      ],
      [
        "54",
        -10.534365413815381
      ],
      [
        "coding",
        -10.534399186623403
      ],
      [
        "66",
        -10.534635309399137
      ],
      [
        "precision",
        -10.53466430329012
      ],
      [
        "pow",
        -10.53527784016773
      ],
      [
        "understand",
        -10.536306286165116
      ],
      [
        "probabilities",
        -10.53652154121822
      ],
      [
        "symbols",
        -10.536524095707916
      ],
      [
        "ord",
        -10.538112234010248
      ],
      [
        "connecting",
        -10.539856301423047
      ],
      [
        "distributions",
        -10.539938316401258
      ],
      [
        "exec",
        -10.539956480606639
      ],
      [
        "writing",
        -10.540445858111756
      ],
      [
        "到",
        -10.5413625823301
      ],
      [
        "achieve",
        -10.541773340051455
      ],
      [
        "Precompute",
        -10.541857822521521
      ],
      [
        "fully",
        -10.544027137496071
      ],
      [
        "marked",
        -10.54431758140285
      ],
      [
        "coins",
        -10.54488975650814
      ],
      [
        "circular",
        -10.545341094072711
      ],
      [
        "handling",
        -10.545451902092596
      ],
      [
        "fix",
        -10.545922990380655
      ],
      [
        "computationally",
        -10.548003792515193
      ],
      [
        "_min",
        -10.549557137079043
      ],
      [
        "2x2",
        -10.550106453805041
      ],
      [
        "discuss",
        -10.55068865010906
      ],
      [
        "semi",
        -10.552034705794014
      ],
      [
        "E_",
        -10.553067319276995
      ],
      [
        "Use",
        -10.55471831163221
      ],
      [
        "giving",
        -10.554973188674488
      ],
      [
        "ngc",
        -10.555999200530216
      ],
      [
        "offset",
        -10.5560094329596
      ],
      [
        "centers",
        -10.556266762183395
      ],
      [
        "prove",
        -10.556606499201319
      ],
      [
        "diagonals",
        -10.556731916559086
      ],
      [
        "complexity",
        -10.556784523786494
      ],
      [
        "checked",
        -10.557588675045999
      ],
      [
        "stable",
        -10.558097439603808
      ],
      [
        "xmath91",
        -10.558297378626529
      ],
      [
        "yields",
        -10.558334398120971
      ],
      [
        "previously",
        -10.5584613037007
      ],
      [
        "sinθ",
        -10.558836033358324
      ],
      [
        "heavy",
        -10.559169925924834
      ],
      [
        "exclusion",
        -10.560335353955141
      ],
      [
        "P_",
        -10.561154110450241
      ],
      [
        "projection",
        -10.561732948476731
      ],
      [
        "tensor",
        -10.5620741776964
      ],
      [
        "A_",
        -10.56387027022681
      ],
      [
        "residue",
        -10.564388672829203
      ],
      [
        "333",
        -10.56455452271766
      ],
      [
        "people",
        -10.565643857190079
      ],
      [
        "nested",
        -10.567458741163675
      ],
      [
        "nuclear",
        -10.567575606863244
      ],
      [
        "prior",
        -10.567894909731356
      ],
      [
        "king",
        -10.568982470894783
      ],
      [
        "complement",
        -10.569076390476656
      ],
      [
        "exchange",
        -10.569792946835035
      ],
      [
        "a_k",
        -10.570466629617181
      ],
      [
        "issue",
        -10.570921649317366
      ],
      [
        "1997",
        -10.571875736319486
      ],
      [
        "atoms",
        -10.571940273111196
      ],
      [
        "mathematical",
        -10.571981694465475
      ],
      [
        "often",
        -10.572097612714357
      ],
      [
        "displacement",
        -10.572118646714035
      ],
      [
        "xmath94",
        -10.573053788688835
      ],
      [
        "opponent",
        -10.573454909005259
      ],
      [
        "xmath93",
        -10.573647718918455
      ],
      [
        "flipping",
        -10.57421177356745
      ],
      [
        "traversal",
        -10.574908812184535
      ],
      [
        "pointer",
        -10.575058216967788
      ],
      [
        "}}\\",
        -10.575719650044915
      ],
      [
        "tile",
        -10.575908256059906
      ],
      [
        "partitions",
        -10.577020870955304
      ],
      [
        "details",
        -10.577063470969383
      ],
      [
        "triple",
        -10.57788704874981
      ],
      [
        "59",
        -10.578128550473147
      ],
      [
        "k_i",
        -10.578862549408353
      ],
      [
        "（",
        -10.57992043677051
      ],
      [
        "differential",
        -10.580401158569329
      ],
      [
        "easy",
        -10.580982510275945
      ],
      [
        "roads",
        -10.58197145798334
      ],
      [
        "meet",
        -10.582096268524175
      ],
      [
        "bracket",
        -10.582786589604185
      ],
      [
        ")))",
        -10.582908392006784
      ],
      [
        "multiplicative",
        -10.582994086190519
      ],
      [
        "xmath95",
        -10.583209841414288
      ],
      [
        "plot",
        -10.586606825682864
      ],
      [
        "apj",
        -10.586970701048372
      ],
      [
        "flat",
        -10.587541491432777
      ],
      [
        "fast",
        -10.588010191114469
      ],
      [
        "dynamical",
        -10.58880860944953
      ],
      [
        "commands",
        -10.589305252357851
      ],
      [
        "mark",
        -10.589955153020766
      ],
      [
        "xmath92",
        -10.589994391991695
      ],
      [
        "Starting",
        -10.59050282373668
      ],
      [
        "xmath96",
        -10.59078276848963
      ],
      [
        "Possible",
        -10.591061776233337
      ],
      [
        "constants",
        -10.59216352234611
      ],
      [
        "xmath97",
        -10.592937047836237
      ],
      [
        "precise",
        -10.59356231607289
      ],
      [
        "comparing",
        -10.59407162231935
      ],
      [
        "2012",
        -10.594096698344172
      ],
      [
        "role",
        -10.594273202274145
      ],
      [
        "identify",
        -10.595804873640052
      ],
      [
        "integration",
        -10.597075929955256
      ],
      [
        "galactic",
        -10.598038336530637
      ],
      [
        "allowing",
        -10.598799220518211
      ],
      [
        "58",
        -10.599147012842923
      ],
      [
        "post",
        -10.599405120018659
      ],
      [
        "DSU",
        -10.599628935753543
      ],
      [
        "fifth",
        -10.600609430872698
      ],
      [
        "themselves",
        -10.600726782539507
      ],
      [
        "Human",
        -10.601869250871712
      ],
      [
        "swapping",
        -10.60270529256993
      ],
      [
        "notice",
        -10.602751199907587
      ],
      [
        "mod7",
        -10.60288458447395
      ],
      [
        "friend",
        -10.604685273771343
      ],
      [
        "centered",
        -10.604906434060139
      ],
      [
        "reduction",
        -10.60523742171397
      ],
      [
        "'.'",
        -10.606841139028989
      ],
      [
        "neutrino",
        -10.60685140976177
      ],
      [
        "configurations",
        -10.607000687462685
      ],
      [
        "xmath98",
        -10.60749564401887
      ],
      [
        "polynomials",
        -10.60755624982036
      ],
      [
        "quadrilateral",
        -10.609215525312239
      ],
      [
        "disjoint",
        -10.610516964032554
      ],
      [
        "contained",
        -10.610912293907859
      ],
      [
        "guess",
        -10.611029579847619
      ],
      [
        "m_i",
        -10.611339479308004
      ],
      [
        "xmath100",
        -10.611451752916702
      ],
      [
        "solved",
        -10.612001321915512
      ],
      [
        "detailed",
        -10.612460345578056
      ],
      [
        "proportional",
        -10.612578956586239
      ],
      [
        "replacing",
        -10.6141173898743
      ],
      [
        "_start",
        -10.61494336012088
      ],
      [
        "algebra",
        -10.61567392643234
      ],
      [
        "domino",
        -10.616050863580872
      ],
      [
        "application",
        -10.616765844394076
      ],
      [
        "moved",
        -10.616984062888848
      ],
      [
        "scales",
        -10.618364663833873
      ],
      [
        "detection",
        -10.61944966150371
      ],
      [
        "xmath99",
        -10.620553360124052
      ],
      [
        "transform",
        -10.621149496031832
      ],
      [
        "tracking",
        -10.625048671535888
      ],
      [
        "v_i",
        -10.62523687840132
      ],
      [
        "84",
        -10.625998950495319
      ],
      [
        "1996",
        -10.62714464227756
      ],
      [
        "adjust",
        -10.628907755405884
      ],
      [
        "significantly",
        -10.62913769144396
      ],
      [
        "Final",
        -10.629194127788269
      ],
      [
        "arguments",
        -10.629584427238015
      ],
      [
        "optimization",
        -10.63017672262919
      ],
      [
        "continuum",
        -10.6312125990388
      ],
      [
        "tuples",
        -10.63153659994923
      ],
      [
        "massive",
        -10.632453973064745
      ],
      [
        "arithmetic",
        -10.632510151410818
      ],
      [
        "usually",
        -10.632957290076375
      ],
      [
        "1e18",
        -10.633260821854213
      ],
      [
        "understanding",
        -10.633333157651565
      ],
      [
        "characteristic",
        -10.633883652627627
      ],
      [
        "introduce",
        -10.633909924295212
      ],
      [
        "Summar",
        -10.634608840486834
      ],
      [
        "north",
        -10.635499759920332
      ],
      [
        "easily",
        -10.635672096566275
      ],
      [
        "Example",
        -10.636055051326984
      ],
      [
        "solar",
        -10.636521934061165
      ],
      [
        "appropriate",
        -10.636526225442443
      ],
      [
        "requirement",
        -10.636601009628478
      ],
      [
        "approaching",
        -10.637003373498372
      ],
      [
        "onto",
        -10.637236239149265
      ],
      [
        "105",
        -10.637648179788009
      ],
      [
        "feature",
        -10.638448835084809
      ],
      [
        "cpp",
        -10.639020227889716
      ],
      [
        "conclude",
        -10.639926550582901
      ],
      [
        "recently",
        -10.6412626385984
      ],
      [
        "transfer",
        -10.641487788854336
      ],
      [
        "view",
        -10.64250296944389
      ],
      [
        "contradiction",
        -10.643256834600775
      ],
      [
        "flipped",
        -10.643524451256752
      ],
      [
        "85",
        -10.64372963136689
      ],
      [
        "Article",
        -10.644051917540216
      ],
      [
        "不",
        -10.644145651773307
      ],
      [
        "contradicts",
        -10.644340444010187
      ],
      [
        "electrons",
        -10.644762690044399
      ],
      [
        "putting",
        -10.645104249202754
      ],
      [
        "factorization",
        -10.64536405332724
      ],
      [
        "jet",
        -10.645397039948268
      ],
      [
        "classes",
        -10.645573489863272
      ],
      [
        "current_max",
        -10.645721657396779
      ],
      [
        "insertion",
        -10.646057637589932
      ],
      [
        "challenging",
        -10.646082832118408
      ],
      [
        "dispersion",
        -10.646746940002728
      ],
      [
        "Examples",
        -10.648613295128726
      ],
      [
        "leave",
        -10.648732136808771
      ],
      [
        "_pos",
        -10.649207042451707
      ],
      [
        "site",
        -10.649245524831853
      ],
      [
        "immediately",
        -10.649667423207303
      ],
      [
        "relations",
        -10.649994507091304
      ],
      [
        "mapping",
        -10.650407407577616
      ],
      [
        "accretion",
        -10.65152124445787
      ],
      [
        "especially",
        -10.652052318681879
      ],
      [
        "…",
        -10.653840091375804
      ],
      [
        "fermi",
        -10.655677493304347
      ],
      [
        "draw",
        -10.65658206794202
      ],
      [
        "names",
        -10.657879127164243
      ],
      [
        "orbital",
        -10.658613853283898
      ],
      [
        "thing",
        -10.660072586122519
      ],
      [
        "log2",
        -10.660759709929684
      ],
      [
        "D_",
        -10.662335467064038
      ],
      [
        "为",
        -10.663344140134434
      ],
      [
        "affects",
        -10.663845466470503
      ],
      [
        "contiguous",
        -10.664691922418843
      ],
      [
        "xmath101",
        -10.665745952513308
      ],
      [
        "expand",
        -10.665833966793429
      ],
      [
        "bool",
        -10.66661011564808
      ],
      [
        "AP",
        -10.667483446145065
      ],
      [
        "77",
        -10.669509760937673
      ],
      [
        "quasi",
        -10.669883728351762
      ],
      [
        "head",
        -10.670023130007477
      ],
      [
        "simplifies",
        -10.671119883536962
      ],
      [
        "working",
        -10.671691745353618
      ],
      [
        "derive",
        -10.672004080592027
      ],
      [
        "introduced",
        -10.672150483773782
      ],
      [
        "sometimes",
        -10.672251667392635
      ],
      [
        "damage",
        -10.674034229039755
      ],
      [
        "}$",
        -10.674103711031083
      ],
      [
        "xmath104",
        -10.674142530918651
      ],
      [
        "evaluated",
        -10.674458284410399
      ],
      [
        "equivalence",
        -10.675175245925642
      ],
      [
        "geometric",
        -10.675502456621022
      ],
      [
        "completely",
        -10.675610770084313
      ],
      [
        "xmath105",
        -10.676063160914568
      ],
      [
        "roughly",
        -10.677010639264777
      ],
      [
        "Test",
        -10.677130440112691
      ],
      [
        "trailing",
        -10.677519620500478
      ],
      [
        "tiles",
        -10.678218311213822
      ],
      [
        "excluded",
        -10.67961618143636
      ],
      [
        "123",
        -10.68093860560208
      ],
      [
        "geq",
        -10.682096586555952
      ],
      [
        "mentioned",
        -10.682451907997303
      ],
      [
        "√(",
        -10.682471895089025
      ],
      [
        "alternate",
        -10.682865683229721
      ],
      [
        "xmath103",
        -10.685743243753818
      ],
      [
        "inclusive",
        -10.686190035367794
      ],
      [
        "xmath102",
        -10.687142958988609
      ],
      [
        "capture",
        -10.687354943805222
      ],
      [
        "ation",
        -10.687462758400004
      ],
      [
        "namespace",
        -10.687478887653326
      ],
      [
        "sieve",
        -10.687936241496857
      ],
      [
        "Fib",
        -10.687976048609167
      ],
      [
        "brackets",
        -10.689121901845725
      ],
      [
        "₃",
        -10.689359090916032
      ],
      [
        "items",
        -10.689578372860055
      ],
      [
        "estimated",
        -10.689741944968475
      ],
      [
        "Testing",
        -10.689802180344481
      ],
      [
        "__",
        -10.690276806677838
      ],
      [
        "fractional",
        -10.690310640460854
      ],
      [
        "entropy",
        -10.690812540777141
      ],
      [
        "78",
        -10.690833760314796
      ],
      [
        "eventually",
        -10.690865320446926
      ],
      [
        "sky",
        -10.691508870127114
      ],
      [
        "provides",
        -10.692020479431115
      ],
      [
        "dashed",
        -10.692760982810226
      ],
      [
        "title",
        -10.693095998940871
      ],
      [
        "xmath110",
        -10.693288235793151
      ],
      [
        "powers",
        -10.69619373464895
      ],
      [
        "gravitational",
        -10.697306206710323
      ],
      [
        "fill",
        -10.697608480569407
      ],
      [
        "ight",
        -10.697756040173209
      ],
      [
        "repeat",
        -10.697978624448234
      ],
      [
        "xmath106",
        -10.699855750503007
      ],
      [
        "passing",
        -10.699898787943253
      ],
      [
        "flips",
        -10.700234518819062
      ],
      [
        "2013",
        -10.701038768087638
      ],
      [
        "xmath107",
        -10.701364103693392
      ],
      [
        "JS",
        -10.701550762865432
      ],
      [
        "R_",
        -10.701573326133747
      ],
      [
        "asymptotic",
        -10.701638474130284
      ],
      [
        "recursion",
        -10.701685382943936
      ],
      [
        "68",
        -10.701690314540425
      ],
      [
        "guaranteed",
        -10.702094707629309
      ],
      [
        "experiment",
        -10.702343183798225
      ],
      [
        "basic",
        -10.702464402899823
      ],
      [
        "equilateral",
        -10.703693867108854
      ],
      [
        "fits",
        -10.70370307956902
      ],
      [
        "Fenwick",
        -10.703875983155347
      ],
      [
        "equality",
        -10.704577086117684
      ],
      [
        "observe",
        -10.704730441334233
      ],
      [
        "correction",
        -10.707504673560859
      ],
      [
        "conclusion",
        -10.70890525704227
      ],
      [
        "minimized",
        -10.70893009567379
      ],
      [
        "wants",
        -10.709220425794033
      ],
      [
        "Answer",
        -10.70938486972423
      ],
      [
        "expanding",
        -10.711083903595608
      ],
      [
        "representing",
        -10.711681021562686
      ],
      [
        "yield",
        -10.71173402138189
      ],
      [
        "111",
        -10.711828768413763
      ],
      [
        "corners",
        -10.712058409129543
      ],
      [
        "bridge",
        -10.71250600923048
      ],
      [
        "kind",
        -10.713031619221063
      ],
      [
        "pixels",
        -10.713166632919386
      ],
      [
        "congruent",
        -10.71347928082209
      ],
      [
        "adjusted",
        -10.713642063108837
      ],
      [
        "reached",
        -10.71444345477228
      ],
      [
        "faces",
        -10.715701915701281
      ],
      [
        "factorial",
        -10.71577902153889
      ],
      [
        "convert",
        -10.717499991298551
      ],
      [
        "eigenvalues",
        -10.717865938462273
      ],
      [
        "location",
        -10.718071805340314
      ],
      [
        "arrival",
        -10.718499145653755
      ],
      [
        "(...)",
        -10.71943550777536
      ],
      [
        "_candidate",
        -10.719703025756111
      ],
      [
        "shell",
        -10.72151652362489
      ],
      [
        "xmath108",
        -10.72154564717389
      ],
      [
        "mev",
        -10.72195513921116
      ],
      [
        "major",
        -10.722507053312999
      ],
      [
        "year",
        -10.722510451815001
      ],
      [
        "growth",
        -10.723190386149469
      ],
      [
        "circ",
        -10.72431531328827
      ],
      [
        "shifts",
        -10.725281455927712
      ],
      [
        "expects",
        -10.725436517267784
      ],
      [
        "updated",
        -10.726649852584986
      ],
      [
        "automaton",
        -10.72711289048624
      ],
      [
        "'('",
        -10.727504101929732
      ],
      [
        "relate",
        -10.727583566570077
      ],
      [
        "rotations",
        -10.727845253497506
      ],
      [
        "neutron",
        -10.728431968939244
      ],
      [
        "principle",
        -10.728807080972835
      ],
      [
        "resonance",
        -10.729070955675672
      ],
      [
        "fundamental",
        -10.730390517121542
      ],
      [
        "cal",
        -10.731126870919352
      ],
      [
        "attack",
        -10.731935197047004
      ],
      [
        "extend",
        -10.73230053352365
      ],
      [
        "ensures",
        -10.73289605711508
      ],
      [
        "001",
        -10.733807501781566
      ],
      [
        "produced",
        -10.734888315285525
      ],
      [
        "modeled",
        -10.735943124199906
      ],
      [
        "69",
        -10.737603550534525
      ],
      [
        "varying",
        -10.73763098081712
      ],
      [
        "67",
        -10.738277626904198
      ],
      [
        "branches",
        -10.73911528685589
      ],
      [
        "complicates",
        -10.739351422549746
      ],
      [
        "Point",
        -10.739703201287611
      ],
      [
        "shock",
        -10.739838379170639
      ],
      [
        "S_i",
        -10.740873965783164
      ],
      [
        "nearest",
        -10.741039378137401
      ],
      [
        "variation",
        -10.741247717177906
      ],
      [
        "increased",
        -10.741412049437814
      ],
      [
        "epsilon",
        -10.741438637092724
      ],
      [
        "76",
        -10.741691403160607
      ],
      [
        "xmath109",
        -10.742541889425569
      ],
      [
        "residues",
        -10.742734744194959
      ],
      [
        "cancel",
        -10.743253924774976
      ],
      [
        "-----",
        -10.743594462691972
      ],
      [
        "efficiency",
        -10.743790893230223
      ],
      [
        "numerically",
        -10.744230733701714
      ],
      [
        "encoding",
        -10.74450788092413
      ],
      [
        "did",
        -10.744549091343428
      ],
      [
        "breaking",
        -10.744901666525047
      ],
      [
        "x_1",
        -10.746715831395441
      ],
      [
        "relatively",
        -10.746832787751295
      ],
      [
        "million",
        -10.747093165042577
      ],
      [
        "atomic",
        -10.747260753514666
      ],
      [
        "dots",
        -10.747334420020028
      ],
      [
        "implementing",
        -10.747967482756923
      ],
      [
        "atom",
        -10.74929251285546
      ],
      [
        "cause",
        -10.749533644349881
      ],
      [
        "crucial",
        -10.749916172333098
      ],
      [
        "p_j",
        -10.750451434638185
      ],
      [
        "practice",
        -10.753044514380148
      ],
      [
        "asks",
        -10.753118142127207
      ],
      [
        "sorted_",
        -10.753172826678188
      ],
      [
        "smarter",
        -10.753292558720554
      ],
      [
        "87",
        -10.753586222660854
      ],
      [
        "101",
        -10.754092682285158
      ],
      [
        "mechanism",
        -10.754771604961633
      ],
      [
        "refer",
        -10.75509296297045
      ],
      [
        "never",
        -10.755192295802932
      ],
      [
        "};",
        -10.75649581694816
      ],
      [
        "happens",
        -10.757077092517724
      ],
      [
        "norm",
        -10.757479885553693
      ],
      [
        "molecular",
        -10.759102113089185
      ],
      [
        "specify",
        -10.759299202204556
      ],
      [
        "modulus",
        -10.760560917493814
      ],
      [
        "picture",
        -10.760741517979268
      ],
      [
        "robot",
        -10.761077160865794
      ],
      [
        "situation",
        -10.761471778212918
      ],
      [
        "lowercase",
        -10.761875530655413
      ],
      [
        "supported",
        -10.763821042416707
      ],
      [
        "treat",
        -10.764168747530661
      ],
      [
        "sections",
        -10.764981761241259
      ],
      [
        "furthermore",
        -10.765411570807094
      ],
      [
        "radii",
        -10.76562095954396
      ],
      [
        "bitmask",
        -10.766071367807308
      ],
      [
        "Adding",
        -10.766420790541584
      ],
      [
        "h_i",
        -10.767313364912344
      ],
      [
        "entirely",
        -10.769254695394032
      ],
      [
        "patterns",
        -10.769645374855513
      ],
      [
        "μ",
        -10.769811568077381
      ],
      [
        "comment",
        -10.771027965731239
      ],
      [
        "storing",
        -10.771063428962268
      ],
      [
        "triples",
        -10.771248898548167
      ],
      [
        "densities",
        -10.771513775755366
      ],
      [
        "bounds",
        -10.77214017773691
      ],
      [
        "₀",
        -10.772531896223986
      ],
      [
        "rectangles",
        -10.774285809688346
      ],
      [
        "everything",
        -10.774701658182535
      ],
      [
        "save",
        -10.775727659807453
      ],
      [
        "focus",
        -10.775856336154275
      ],
      [
        "proposition",
        -10.776270355295283
      ],
      [
        "circumcircle",
        -10.778017204665788
      ],
      [
        "xmath115",
        -10.77802735972465
      ],
      [
        "implemented",
        -10.778369204364198
      ],
      [
        "1995",
        -10.77848333726123
      ],
      [
        "gaps",
        -10.779255613458139
      ],
      [
        "88",
        -10.77976676688426
      ],
      [
        "q_",
        -10.779788084138943
      ],
      [
        "extension",
        -10.781653815932067
      ],
      [
        "_k",
        -10.78222673047001
      ],
      [
        "outgoing",
        -10.783612715329358
      ],
      [
        "halo",
        -10.784400708981458
      ],
      [
        "_part",
        -10.78530109542694
      ],
      [
        "sufficiently",
        -10.78593316142158
      ],
      [
        "whatever",
        -10.786775064301041
      ],
      [
        "assignments",
        -10.786966036298505
      ],
      [
        "sorting",
        -10.786988009868507
      ],
      [
        "xmath114",
        -10.787450959193734
      ],
      [
        "xmath116",
        -10.788115729021836
      ],
      [
        "satisfying",
        -10.788171809484412
      ],
      [
        "xmath111",
        -10.78871737138065
      ],
      [
        "required_",
        -10.788844116506045
      ],
      [
        "water",
        -10.790334435767667
      ],
      [
        "250",
        -10.790702038722833
      ],
      [
        "sizes",
        -10.790785063972546
      ],
      [
        "79",
        -10.791206939806791
      ],
      [
        "corrections",
        -10.791264687013523
      ],
      [
        "concatenated",
        -10.791526740512255
      ],
      [
        "generator",
        -10.791793993995512
      ],
      [
        "discussion",
        -10.792512369476313
      ],
      [
        "°)",
        -10.79279548507216
      ],
      [
        "interior",
        -10.79445148240276
      ],
      [
        ")//",
        -10.795003309925844
      ],
      [
        "binom",
        -10.795343462802524
      ],
      [
        "pairing",
        -10.797444551748567
      ],
      [
        "statistical",
        -10.797675704603314
      ],
      [
        "treated",
        -10.799280342936523
      ],
      [
        "xmath113",
        -10.799923764185044
      ],
      [
        "mixing",
        -10.800333132443713
      ],
      [
        "discrete",
        -10.80053986572332
      ],
      [
        "binomial",
        -10.800649444274963
      ],
      [
        "xmath112",
        -10.802000571743516
      ],
      [
        "rates",
        -10.802126074680547
      ],
      [
        "indicate",
        -10.80245844975833
      ],
      [
        "dominated",
        -10.802509585668211
      ],
      [
        "–",
        -10.803067503159117
      ],
      [
        "contributing",
        -10.803395633905566
      ],
      [
        "freq",
        -10.804230342976714
      ],
      [
        "wise",
        -10.804687644437355
      ],
      [
        "L_",
        -10.804827060469146
      ],
      [
        "ellipse",
        -10.805053072405162
      ],
      [
        "imply",
        -10.805179010362185
      ],
      [
        "xmath117",
        -10.80582726256404
      ],
      [
        "consisting",
        -10.807173475040983
      ],
      [
        "]).",
        -10.807198381670483
      ],
      [
        "mathcal",
        -10.807398045609155
      ],
      [
        "bulk",
        -10.808847075620731
      ],
      [
        "stay",
        -10.809150215314704
      ],
      [
        "150",
        -10.80958922047614
      ],
      [
        "contrast",
        -10.80960869808656
      ],
      [
        "copies",
        -10.809750935203967
      ],
      [
        "flag",
        -10.811031461785177
      ],
      [
        "identical",
        -10.811867308564388
      ],
      [
        "cubic",
        -10.812116977371156
      ],
      [
        "products",
        -10.815752258667862
      ],
      [
        "iterations",
        -10.815900404214352
      ],
      [
        "BA",
        -10.817009792148584
      ],
      [
        "spiral",
        -10.818441076141188
      ],
      [
        "accurate",
        -10.81864643909639
      ],
      [
        "years",
        -10.81870380370306
      ],
      [
        "rays",
        -10.8187543231762
      ],
      [
        "message",
        -10.818889549420282
      ],
      [
        "away",
        -10.819284005231037
      ],
      [
        "))/",
        -10.8202766741602
      ],
      [
        "course",
        -10.822270295016983
      ],
      [
        "asking",
        -10.82316325831706
      ],
      [
        "pile",
        -10.823254087664024
      ],
      [
        "comb",
        -10.823312373977934
      ],
      [
        "cloud",
        -10.823538805601297
      ],
      [
        "infinitely",
        -10.823635624379886
      ],
      [
        "connection",
        -10.824664663182498
      ],
      [
        "xmath118",
        -10.82838164214475
      ],
      [
        "beginning",
        -10.829444293660977
      ],
      [
        "explicit",
        -10.82983625723875
      ],
      [
        "xmath120",
        -10.830908303066742
      ],
      [
        "ideal",
        -10.831107793332
      ],
      [
        "}^\\",
        -10.831242591445163
      ],
      [
        "tail",
        -10.831870861566262
      ],
      [
        "placing",
        -10.832298340318477
      ],
      [
        "JavaScript",
        -10.833244384466896
      ],
      [
        "ratios",
        -10.835141558072795
      ],
      [
        "typically",
        -10.835267929375593
      ],
      [
        "625",
        -10.835322563831713
      ],
      [
        "Process",
        -10.836044563687523
      ],
      [
        "arctan",
        -10.836143630105607
      ],
      [
        "chemical",
        -10.836283789834646
      ],
      [
        "evidence",
        -10.836691759808653
      ],
      [
        "material",
        -10.836834259008185
      ],
      [
        "subject",
        -10.836965313953762
      ],
      [
        "whereas",
        -10.837294445314871
      ],
      [
        "electric",
        -10.837903415766855
      ],
      [
        "homogeneous",
        -10.838514531190324
      ],
      [
        "wall",
        -10.838606504991658
      ],
      [
        "perturbation",
        -10.838847965417637
      ],
      [
        "medium",
        -10.839694371437743
      ],
      [
        "360",
        -10.8406880082178
      ],
      [
        "unknown",
        -10.840712760126964
      ],
      [
        "simplify",
        -10.841193903769588
      ],
      [
        "separation",
        -10.841277168771974
      ],
      [
        "broken",
        -10.841859805946411
      ],
      [
        "bipartite",
        -10.841860353022737
      ],
      [
        "kev",
        -10.843663929771528
      ],
      [
        "xmath119",
        -10.844029987532895
      ],
      [
        "pairwise",
        -10.84433757866214
      ],
      [
        "cap",
        -10.844546864133607
      ],
      [
        "suggest",
        -10.845188158539946
      ],
      [
        "axes",
        -10.84533239782515
      ],
      [
        "float",
        -10.845677239886786
      ],
      [
        "family",
        -10.846751310542457
      ],
      [
        "room",
        -10.849518144024875
      ],
      [
        "diff",
        -10.84976621906359
      ],
      [
        "intensity",
        -10.849889694709468
      ],
      [
        "lem",
        -10.850313563516345
      ],
      [
        "pure",
        -10.850947906024466
      ],
      [
        "walk",
        -10.852804962143969
      ],
      [
        "}^{\\",
        -10.853726666637701
      ],
      [
        "Substitute",
        -10.853789605609052
      ],
      [
        "deque",
        -10.854273019191979
      ],
      [
        "tight",
        -10.854515338438311
      ],
      [
        "collection",
        -10.85467615605866
      ],
      [
        "++.",
        -10.855175850794536
      ],
      [
        "\";",
        -10.855304276385516
      ],
      [
        "students",
        -10.85633367146566
      ],
      [
        "transverse",
        -10.856820839855162
      ],
      [
        "delete",
        -10.85699651256462
      ],
      [
        "generally",
        -10.858093467537595
      ],
      [
        "normalized",
        -10.859980734521306
      ],
      [
        "rotate",
        -10.860245168402773
      ],
      [
        "accordingly",
        -10.860320698299017
      ],
      [
        "Node",
        -10.861041161689288
      ],
      [
        "假设",
        -10.861561725322645
      ],
      [
        "DFS",
        -10.862084412232184
      ],
      [
        "left_",
        -10.86247726119207
      ],
      [
        "explicitly",
        -10.863247857930977
      ],
      [
        "C_",
        -10.863638657333698
      ],
      [
        "Divide",
        -10.86391151514313
      ],
      [
        "altitude",
        -10.864185502528498
      ],
      [
        "knight",
        -10.864341712012106
      ],
      [
        "outcome",
        -10.864943197145386
      ],
      [
        "trace",
        -10.865030057075233
      ],
      [
        "appendix",
        -10.86566858723047
      ],
      [
        "quantities",
        -10.865894670828338
      ],
      [
        "boxes",
        -10.866890265800215
      ],
      [
        "smooth",
        -10.867167976383715
      ],
      [
        "rooted",
        -10.867265897761452
      ],
      [
        "diffusion",
        -10.869868943454003
      ],
      [
        "chance",
        -10.87011120107756
      ],
      [
        "():",
        -10.870126318141146
      ],
      [
        "keeping",
        -10.870642047382345
      ],
      [
        "Code",
        -10.871005717336628
      ],
      [
        "109",
        -10.871275462188375
      ],
      [
        "cubes",
        -10.871757269873354
      ],
      [
        "convergence",
        -10.871769403138638
      ],
      [
        "encode",
        -10.873969326251553
      ],
      [
        "stage",
        -10.875846964733485
      ],
      [
        "collisions",
        -10.876392952401956
      ],
      [
        "identified",
        -10.876794802047295
      ],
      [
        "survey",
        -10.877519823283112
      ],
      [
        "600",
        -10.877687279178021
      ],
      [
        "vec",
        -10.87773001007263
      ],
      [
        "van",
        -10.878133686408495
      ],
      [
        "}\\).",
        -10.878264835068336
      ],
      [
        "reported",
        -10.87891611105165
      ],
      [
        "numbered",
        -10.87913366977962
      ],
      [
        "demonstrate",
        -10.879166268735286
      ],
      [
        "python",
        -10.880269516109147
      ],
      [
        "product_",
        -10.880304129286516
      ],
      [
        "coupled",
        -10.88051214749542
      ],
      [
        "stop",
        -10.881562226202874
      ],
      [
        "relativistic",
        -10.882701377322972
      ],
      [
        "gravity",
        -10.88296433649172
      ],
      [
        "eliminate",
        -10.883139467242843
      ],
      [
        "intersects",
        -10.883814403313753
      ],
      [
        "wide",
        -10.883955419031292
      ],
      [
        "compatible",
        -10.883989447123625
      ],
      [
        "static",
        -10.884471738823658
      ],
      [
        "{{\\",
        -10.884794633961327
      ],
      [
        "]);",
        -10.88549261470128
      ],
      [
        "higgs",
        -10.885677539892928
      ],
      [
        "vague",
        -10.886053107275147
      ],
      [
        "÷",
        -10.88647815015788
      ],
      [
        "这样",
        -10.88697744668789
      ],
      [
        "remember",
        -10.887667958515326
      ],
      [
        "south",
        -10.888328979215707
      ],
      [
        "respective",
        -10.890364449463506
      ],
      [
        "connects",
        -10.890549338988992
      ],
      [
        "stability",
        -10.891076001496879
      ],
      [
        "science",
        -10.891136321804941
      ],
      [
        "row1",
        -10.892955312457397
      ],
      [
        "xmath123",
        -10.893057839894439
      ],
      [
        "interest",
        -10.893579463480357
      ],
      [
        "666",
        -10.894941405662895
      ],
      [
        "qubit",
        -10.896077415605788
      ],
      [
        "x_n",
        -10.896246849235684
      ],
      [
        "Tree",
        -10.897980580124933
      ],
      [
        "xmath124",
        -10.898272018975577
      ],
      [
        "如果",
        -10.898525431841817
      ],
      [
        "temperatures",
        -10.898783950729731
      ],
      [
        "dominoes",
        -10.898939647519768
      ],
      [
        "γ",
        -10.899076842914607
      ],
      [
        "decision",
        -10.899119822626126
      ],
      [
        "xmath125",
        -10.89928593835231
      ],
      [
        "xmath126",
        -10.899570146630799
      ],
      [
        "121",
        -10.89986231713828
      ],
      [
        "],[",
        -10.901846086868858
      ],
      [
        "simplified",
        -10.902448808651
      ],
      [
        "ship",
        -10.902518689752263
      ],
      [
        "filter",
        -10.902890430804588
      ],
      [
        "colored",
        -10.903401648644303
      ],
      [
        "repeated",
        -10.904171052920294
      ],
      [
        "realize",
        -10.904292740711318
      ],
      [
        "photons",
        -10.904518300703323
      ],
      [
        "mag",
        -10.905022580379311
      ],
      [
        "usual",
        -10.905052136795714
      ],
      [
        "proton",
        -10.906882355879063
      ],
      [
        "correlations",
        -10.90778993766865
      ],
      [
        "108",
        -10.908084944086182
      ],
      [
        "σ",
        -10.908888340195755
      ],
      [
        "namely",
        -10.908907067467048
      ],
      [
        "xmath121",
        -10.908935365451143
      ],
      [
        "destination",
        -10.90973840819362
      ],
      [
        "knowing",
        -10.91077438438239
      ],
      [
        "interpretation",
        -10.911286779533034
      ],
      [
        "subgroup",
        -10.91144587076302
      ],
      [
        "AM",
        -10.912526916251698
      ],
      [
        ")):",
        -10.913266890886211
      ],
      [
        "inequalities",
        -10.913413326710518
      ],
      [
        "last_",
        -10.914697898140927
      ],
      [
        "reality",
        -10.914876823493104
      ],
      [
        "traverse",
        -10.915767505452601
      ],
      [
        "Fibonacci",
        -10.915828900951174
      ],
      [
        "xmath122",
        -10.917041581070322
      ],
      [
        "initialized",
        -10.917666392903067
      ],
      [
        "transport",
        -10.918174437292569
      ],
      [
        "systematic",
        -10.918868544171355
      ],
      [
        "xmath127",
        -10.918972292920722
      ],
      [
        "wavelength",
        -10.919759301461328
      ],
      [
        "但",
        -10.91994126166265
      ],
      [
        "harmonic",
        -10.92024429343184
      ],
      [
        "relationship",
        -10.920968348136949
      ],
      [
        "additive",
        -10.92181628208791
      ],
      [
        "://",
        -10.92231909859468
      ],
      [
        "leftmost",
        -10.922369304393643
      ],
      [
        "kept",
        -10.922483657791359
      ],
      [
        "itertools",
        -10.922738046416386
      ],
      [
        "didn",
        -10.923198577244264
      ],
      [
        "One",
        -10.923704779764424
      ],
      [
        "generation",
        -10.924424758774062
      ],
      [
        "closer",
        -10.925268616490213
      ],
      [
        "con",
        -10.925843904805323
      ],
      [
        "thinking",
        -10.926668548693755
      ],
      [
        "technique",
        -10.92694258117883
      ],
      [
        "backward",
        -10.927103822216512
      ],
      [
        "clique",
        -10.927448415361466
      ],
      [
        "laser",
        -10.927682002471181
      ],
      [
        "creating",
        -10.927985444147152
      ],
      [
        "ldots",
        -10.928402654178345
      ],
      [
        "xmath128",
        -10.92842437252976
      ],
      [
        "gets",
        -10.928744679754752
      ],
      [
        "attempt",
        -10.929010648022608
      ],
      [
        "pivot",
        -10.92923095102728
      ],
      [
        "changed",
        -10.929463309219418
      ],
      [
        "analyze",
        -10.929827059133663
      ],
      [
        "leaving",
        -10.930030622207981
      ],
      [
        "applies",
        -10.93021746960558
      ],
      [
        "fitting",
        -10.93039102847346
      ],
      [
        "examine",
        -10.930662655174096
      ],
      [
        "created",
        -10.932354508872491
      ],
      [
        "listed",
        -10.936540880889078
      ],
      [
        "Subtract",
        -10.937901188398111
      ],
      [
        "intended",
        -10.937944789016317
      ],
      [
        ",...,",
        -10.938240557444644
      ],
      [
        "xmath130",
        -10.938915997414018
      ],
      [
        "Sum_",
        -10.939121304911737
      ],
      [
        "xmath129",
        -10.939318022714726
      ],
      [
        "specified",
        -10.940331668212831
      ],
      [
        "2014",
        -10.940865391062136
      ],
      [
        "com",
        -10.94146281806388
      ],
      [
        "narrow",
        -10.94256662224435
      ],
      [
        "LHS",
        -10.94291203455948
      ],
      [
        "winning",
        -10.943226395244988
      ],
      [
        "visible",
        -10.943565010867342
      ],
      [
        "cuts",
        -10.94370176552644
      ],
      [
        "collected",
        -10.944137339258216
      ],
      [
        "uncertainty",
        -10.944545266783647
      ],
      [
        "predicted",
        -10.945160749703238
      ],
      [
        "spread",
        -10.947028564584818
      ],
      [
        "increments",
        -10.94815737124614
      ],
      [
        "peaks",
        -10.948529651035772
      ],
      [
        "subtracting",
        -10.948690069970356
      ],
      [
        "Please",
        -10.949343284837333
      ],
      [
        "Initially",
        -10.949715754140206
      ],
      [
        "exclude",
        -10.949864681364721
      ],
      [
        "nonlinear",
        -10.95106361093194
      ],
      [
        "constrained",
        -10.952022958194574
      ],
      [
        "DE",
        -10.953694633601847
      ],
      [
        "}\\)",
        -10.95380891374051
      ],
      [
        "structured",
        -10.95474820886912
      ],
      [
        "excess",
        -10.955477379840584
      ],
      [
        "contact",
        -10.9563537681631
      ],
      [
        "vacuum",
        -10.957270023870253
      ],
      [
        "plasma",
        -10.957406452871428
      ],
      [
        "endl",
        -10.957484085723946
      ],
      [
        "denotes",
        -10.957918638080498
      ],
      [
        "helper",
        -10.958128662638238
      ],
      [
        "confusing",
        -10.958413337490297
      ],
      [
        "swapped",
        -10.95884232116079
      ],
      [
        "consist",
        -10.958903799673978
      ],
      [
        "reasoning",
        -10.959285579174825
      ],
      [
        "null",
        -10.95939237866444
      ],
      [
        "Expand",
        -10.959542379717023
      ],
      [
        "influence",
        -10.959595451295327
      ],
      [
        "orbits",
        -10.961263327700681
      ],
      [
        "1994",
        -10.961528344157783
      ],
      [
        "sector",
        -10.96189543310724
      ],
      [
        "incoming",
        -10.962414172316352
      ],
      [
        "prop",
        -10.962821674502774
      ],
      [
        "student",
        -10.962941887258928
      ],
      [
        "applicable",
        -10.963026116529909
      ],
      [
        "comma",
        -10.963027094979326
      ],
      [
        "disc",
        -10.963052286000526
      ],
      [
        "original_",
        -10.96418195694748
      ],
      [
        "fluid",
        -10.964460141823427
      ],
      [
        "imaginary",
        -10.964994214273402
      ],
      [
        "discriminant",
        -10.965159544629847
      ],
      [
        "‘",
        -10.965421375240014
      ],
      [
        "keys",
        -10.966878445968934
      ],
      [
        "-√",
        -10.967656965732157
      ],
      [
        "detector",
        -10.968269637617178
      ],
      [
        "Loop",
        -10.968840544498173
      ],
      [
        "94",
        -10.969659231855005
      ],
      [
        "trie",
        -10.969903642103226
      ],
      [
        "converted",
        -10.970044319345945
      ],
      [
        "detail",
        -10.971249134556931
      ],
      [
        "excitation",
        -10.971380184903373
      ],
      [
        "eval",
        -10.97225425442793
      ],
      [
        "curr",
        -10.974030049584329
      ],
      [
        "512",
        -10.974861615911589
      ],
      [
        "Count",
        -10.975266538223252
      ],
      [
        "xmath133",
        -10.97555453241561
      ],
      [
        "photo",
        -10.976476793023934
      ],
      [
        "tilde",
        -10.976501739642707
      ],
      [
        "encoded",
        -10.977375296154772
      ],
      [
        "5000",
        -10.978565139859114
      ],
      [
        "1e4",
        -10.978848304209409
      ],
      [
        "ascending",
        -10.97893216175223
      ],
      [
        "gradient",
        -10.979084623002908
      ],
      [
        "86",
        -10.980407016889183
      ],
      [
        "overlaps",
        -10.98196342239067
      ],
      [
        "74",
        -10.983532890193949
      ],
      [
        "design",
        -10.983722721271663
      ],
      [
        "++)",
        -10.98490700343046
      ],
      [
        "xmath132",
        -10.985567635576745
      ],
      [
        "friends",
        -10.986112132756915
      ],
      [
        "produces",
        -10.986630888728765
      ],
      [
        "faster",
        -10.987108538652905
      ],
      [
        "span",
        -10.988689606027103
      ],
      [
        "framework",
        -10.988999092875625
      ],
      [
        "...)",
        -10.989142908767306
      ],
      [
        "xmath135",
        -10.990987519413276
      ],
      [
        "coloring",
        -10.99106388403179
      ],
      [
        "Line",
        -10.991177088453206
      ],
      [
        "integrating",
        -10.992661635334143
      ],
      [
        "prefix_",
        -10.992894840817458
      ],
      [
        "nucl",
        -10.992971459286276
      ],
      [
        "curvature",
        -10.993316447228462
      ],
      [
        "exponentiation",
        -10.993889839767204
      ],
      [
        "carefully",
        -10.994312277177741
      ],
      [
        "xmath134",
        -10.994323416421533
      ],
      [
        "mathrm",
        -10.994394601587878
      ],
      [
        "Create",
        -10.994990239456028
      ],
      [
        "'-'",
        -10.996045450099631
      ],
      [
        "record",
        -10.99709636363899
      ],
      [
        "replacement",
        -10.997307661204157
      ],
      [
        "default",
        -10.998168354106578
      ],
      [
        "xmath137",
        -10.998890686280786
      ],
      [
        "rise",
        -10.999027236665544
      ],
      [
        "subtraction",
        -10.999084575132022
      ],
      [
        "shall",
        -10.99909043179707
      ],
      [
        "programs",
        -10.999391835949776
      ],
      [
        "xmath136",
        -11.000232804622993
      ],
      [
        "summing",
        -11.000593590914741
      ],
      [
        "composed",
        -11.001663297348838
      ],
      [
        "kinetic",
        -11.001905291842586
      ],
      [
        "indicating",
        -11.00199909676445
      ],
      [
        "graphs",
        -11.002537786014951
      ],
      [
        "differing",
        -11.003714058090985
      ],
      [
        "essentially",
        -11.004111964538222
      ],
      [
        "vice",
        -11.004195954311767
      ],
      [
        "train",
        -11.004715700624457
      ],
      [
        "subarrays",
        -11.004981288117792
      ],
      [
        "quotient",
        -11.006096090908486
      ],
      [
        "int_",
        -11.007618843040776
      ],
      [
        "purposes",
        -11.008145079837774
      ],
      [
        "planet",
        -11.008621778005729
      ],
      [
        "computational",
        -11.008809321069448
      ],
      [
        "suitable",
        -11.008882669519357
      ],
      [
        "_with_",
        -11.009202180411712
      ],
      [
        "accuracy",
        -11.009230271989873
      ],
      [
        "describes",
        -11.009579344001109
      ],
      [
        "cop",
        -11.00979342778712
      ],
      [
        "]*(",
        -11.009835673695129
      ],
      [
        "west",
        -11.010498386368706
      ],
      [
        "xmath131",
        -11.01169955980983
      ],
      [
        "cosmological",
        -11.013028716191027
      ],
      [
        "？",
        -11.013241387264582
      ],
      [
        "orthogonal",
        -11.013447807729166
      ],
      [
        "Choose",
        -11.013921146591896
      ],
      [
        "xmath138",
        -11.01450918745827
      ],
      [
        "Time",
        -11.014802778278911
      ],
      [
        "distributed",
        -11.015100681686583
      ],
      [
        "enumerate",
        -11.015268038591609
      ],
      [
        "remaining_",
        -11.015365810301745
      ],
      [
        "ability",
        -11.015452404358216
      ],
      [
        "access",
        -11.016176917347908
      ],
      [
        "Calculate",
        -11.018023762493039
      ],
      [
        "Factor",
        -11.018989157341462
      ],
      [
        "somewhere",
        -11.019389328533176
      ],
      [
        "estimates",
        -11.019994437476178
      ],
      [
        "qcd",
        -11.020243743631701
      ],
      [
        "supposed",
        -11.02085239776859
      ],
      [
        "•",
        -11.021224766264698
      ],
      [
        "item",
        -11.02132161003113
      ],
      [
        "10000",
        -11.022365052518794
      ],
      [
        "paired",
        -11.022478280521721
      ],
      [
        "xmath140",
        -11.0237045192393
      ],
      [
        "intersections",
        -11.023830403650923
      ],
      [
        "versa",
        -11.024859609450823
      ],
      [
        "2015",
        -11.026761970384767
      ],
      [
        "whitespace",
        -11.028545697193517
      ],
      [
        "_end",
        -11.02856042687399
      ],
      [
        "primary",
        -11.028754374082851
      ],
      [
        "degenerate",
        -11.030420858644332
      ],
      [
        "rewritten",
        -11.03164074305613
      ],
      [
        "drawn",
        -11.0322128269341
      ],
      [
        "composition",
        -11.032264552563227
      ],
      [
        "der",
        -11.032494595737154
      ],
      [
        "dominant",
        -11.032859727651246
      ],
      [
        "dual",
        -11.033092842374444
      ],
      [
        "{}",
        -11.033414802462943
      ],
      [
        "73",
        -11.034088520584667
      ],
      [
        "profiles",
        -11.034215207004166
      ],
      [
        "xmath139",
        -11.034395281973435
      ],
      [
        "poly",
        -11.035370309119568
      ],
      [
        "3x3",
        -11.037231645116536
      ],
      [
        "http",
        -11.037333837337549
      ],
      [
        "dense",
        -11.037850038294508
      ],
      [
        "void",
        -11.038076538275677
      ],
      [
        "performance",
        -11.038845773175002
      ],
      [
        "log_",
        -11.039452912837962
      ],
      [
        "confused",
        -11.040274502031508
      ],
      [
        "可能",
        -11.040787006704265
      ],
      [
        "negligible",
        -11.041180124648953
      ],
      [
        "phases",
        -11.04217691879797
      ],
      [
        "metal",
        -11.043280357873217
      ],
      [
        "upwards",
        -11.043394671306384
      ],
      [
        "arranging",
        -11.046525061390962
      ],
      [
        "obvious",
        -11.046736715220899
      ],
      [
        "little",
        -11.047717386988992
      ],
      [
        "zip",
        -11.048786143241408
      ],
      [
        "applications",
        -11.049570576533863
      ],
      [
        "pulse",
        -11.049617651059133
      ],
      [
        "computer",
        -11.049886236169103
      ],
      [
        "balanced",
        -11.050224915835255
      ],
      [
        "²)/",
        -11.0514555908499
      ],
      [
        "undefined",
        -11.052736950359071
      ],
      [
        "simplicity",
        -11.053624717242023
      ],
      [
        "competitive",
        -11.054142600232527
      ],
      [
        "viewed",
        -11.054528902013024
      ],
      [
        "因为",
        -11.055576621593447
      ],
      [
        "tower",
        -11.056018533493953
      ],
      [
        "quantity",
        -11.056314221563643
      ],
      [
        "polar",
        -11.056575030051551
      ],
      [
        "investigate",
        -11.057075525721883
      ],
      [
        "kernel",
        -11.057889987003797
      ],
      [
        "velocities",
        -11.058172240144534
      ],
      [
        "spherical",
        -11.058222669061204
      ],
      [
        "infrared",
        -11.058444552454723
      ],
      [
        "uppercase",
        -11.0589324246541
      ],
      [
        "stops",
        -11.059863062465306
      ],
      [
        "variance",
        -11.060189808189516
      ],
      [
        "ive",
        -11.060241973466736
      ],
      [
        "currently",
        -11.060995607616888
      ],
      [
        "conflicting",
        -11.061207899403689
      ],
      [
        "triangular",
        -11.061790601471825
      ],
      [
        "maintain",
        -11.06281766327075
      ],
      [
        "());",
        -11.062837267577143
      ],
      [
        "primitive",
        -11.063737232670523
      ],
      [
        "Their",
        -11.064830325515866
      ],
      [
        "DAG",
        -11.067459136210866
      ],
      [
        "hexagon",
        -11.067909125137042
      ],
      [
        "trial",
        -11.06792000722218
      ],
      [
        "denoted",
        -11.068813142942464
      ],
      [
        "Collect",
        -11.068920725788063
      ],
      [
        "opening",
        -11.069088754581314
      ],
      [
        "world",
        -11.071003849274065
      ],
      [
        "designed",
        -11.071406164554677
      ],
      [
        "app",
        -11.071505515236268
      ],
      [
        "reset",
        -11.071539384350837
      ],
      [
        "row2",
        -11.07235442486265
      ],
      [
        "boundaries",
        -11.072712039495881
      ],
      [
        "cooling",
        -11.072816323399358
      ],
      [
        "_new",
        -11.073344189959048
      ],
      [
        "passed",
        -11.073585166617102
      ],
      [
        "xmath143",
        -11.073815653848891
      ],
      [
        "clarify",
        -11.07445397299745
      ],
      [
        "impact",
        -11.074488327726275
      ],
      [
        "iterating",
        -11.074979956407331
      ],
      [
        "0000",
        -11.075216968479754
      ],
      [
        "generalized",
        -11.07545315456252
      ],
      [
        "Denominator",
        -11.075530451825095
      ],
      [
        "rightarrow",
        -11.076091719397514
      ],
      [
        "closure",
        -11.077182823295834
      ],
      [
        "所以",
        -11.077800592522388
      ],
      [
        "entanglement",
        -11.078332938497418
      ],
      [
        "escape",
        -11.078392571572316
      ],
      [
        "evaluation",
        -11.080770020710572
      ],
      [
        "xmath145",
        -11.080928997497857
      ],
      [
        "techniques",
        -11.081337761600542
      ],
      [
        "predictions",
        -11.081683454371747
      ],
      [
        "H_",
        -11.082051565688472
      ],
      [
        "highly",
        -11.08207795658112
      ],
      [
        "Assume",
        -11.08210651573571
      ],
      [
        "submission",
        -11.082517525705253
      ],
      [
        "MEX",
        -11.083128322702889
      ],
      [
        "environment",
        -11.083527406772914
      ],
      [
        "reasonable",
        -11.083966654377127
      ],
      [
        "bias",
        -11.084289856091473
      ],
      [
        "areas",
        -11.084418710726702
      ],
      [
        "past",
        -11.084920961594236
      ],
      [
        "determines",
        -11.085647580936403
      ],
      [
        "xmath146",
        -11.085859880103229
      ],
      [
        "xmath142",
        -11.087262197952054
      ],
      [
        "concept",
        -11.087675380686788
      ],
      [
        "upon",
        -11.087757777117947
      ],
      [
        "xmath144",
        -11.088195654854031
      ],
      [
        "right_",
        -11.088526237179703
      ],
      [
        "collapse",
        -11.090351487505762
      ],
      [
        "Consider",
        -11.090737428346277
      ],
      [
        "Breaking",
        -11.090766743768464
      ],
      [
        "backtracking",
        -11.091451581273649
      ],
      [
        "chains",
        -11.091527488029772
      ],
      [
        "User",
        -11.091548386017584
      ],
      [
        "可以",
        -11.091914795178543
      ],
      [
        "quadrant",
        -11.09202881409196
      ],
      [
        "randomly",
        -11.092197077003133
      ],
      [
        "precomputed",
        -11.092817325724239
      ],
      [
        "usage",
        -11.093646491831825
      ],
      [
        "page",
        -11.093701085705245
      ],
      [
        "uncertainties",
        -11.094182786001832
      ],
      [
        "colon",
        -11.094491475211308
      ],
      [
        "gen",
        -11.094524688691314
      ],
      [
        "holes",
        -11.094614698604435
      ],
      [
        "conflict",
        -11.095548355065546
      ],
      [
        "thank",
        -11.09586597169378
      ],
      [
        "separately",
        -11.096188246979224
      ],
      [
        "len_",
        -11.097377378218463
      ],
      [
        "Generate",
        -11.09754304323244
      ],
      [
        "则",
        -11.097731415365311
      ],
      [
        "rich",
        -11.097845598663715
      ],
      [
        "xmath147",
        -11.098542834619984
      ],
      [
        "monster",
        -11.098655058332971
      ],
      [
        "machine",
        -11.100805854332977
      ],
      [
        "1993",
        -11.100936021770663
      ],
      [
        "alternating",
        -11.100977896483185
      ],
      [
        "freedom",
        -11.101517505697695
      ],
      [
        "fail",
        -11.101746021116066
      ],
      [
        "inserted",
        -11.102009991901129
      ],
      [
        "09",
        -11.102198691779464
      ],
      [
        "169",
        -11.102360579573205
      ],
      [
        "_in_",
        -11.102529439012276
      ],
      [
        "probe",
        -11.102811598454164
      ],
      [
        "2016",
        -11.10282022501853
      ],
      [
        "really",
        -11.102875038992476
      ],
      [
        "struct",
        -11.10409401126205
      ],
      [
        "consuming",
        -11.10463102956013
      ],
      [
        "compressed",
        -11.105710927148984
      ],
      [
        "uniformly",
        -11.106358224111426
      ],
      [
        "reproduce",
        -11.106442649361924
      ],
      [
        "determining",
        -11.106453832937245
      ],
      [
        "xmath141",
        -11.106548824270222
      ],
      [
        "waves",
        -11.107302603317928
      ],
      [
        "formaliz",
        -11.107543356075846
      ],
      [
        "1024",
        -11.107775065265105
      ],
      [
        "ions",
        -11.108335436213393
      ],
      [
        "chiral",
        -11.109138440834482
      ],
      [
        "consequence",
        -11.109757856599188
      ],
      [
        "requiring",
        -11.110142519272017
      ],
      [
        "transformations",
        -11.110575525299657
      ],
      [
        "weighted",
        -11.110623449686
      ],
      [
        "M_",
        -11.11099554735348
      ],
      [
        "inversions",
        -11.111278011322257
      ],
      [
        "clause",
        -11.111894368460028
      ],
      [
        "x_2",
        -11.112587366846917
      ],
      [
        "abundance",
        -11.112900042253338
      ],
      [
        "cols",
        -11.113718481146881
      ],
      [
        "visit",
        -11.113729014837109
      ],
      [
        "metallicity",
        -11.113973415917835
      ],
      [
        "converges",
        -11.114854679543047
      ],
      [
        "parsing",
        -11.115197764301179
      ],
      [
        "triplets",
        -11.11578025736573
      ],
      [
        "Determine",
        -11.116566363961143
      ],
      [
        "endpoint",
        -11.116639138722016
      ],
      [
        "overline",
        -11.117711333393462
      ],
      [
        "safe",
        -11.118386862208865
      ],
      [
        "networks",
        -11.118609658655805
      ],
      [
        "worse",
        -11.118692500648551
      ],
      [
        "walls",
        -11.118788783335544
      ],
      [
        "ment",
        -11.119761988081253
      ],
      [
        "pointing",
        -11.119791083729043
      ],
      [
        "purpose",
        -11.120267893845911
      ],
      [
        "mapped",
        -11.12044023281514
      ],
      [
        "debug",
        -11.120460596601372
      ],
      [
        "node3",
        -11.120739924432275
      ],
      [
        "matched",
        -11.120743735823343
      ],
      [
        "fine",
        -11.120832395689122
      ],
      [
        "analytic",
        -11.120985596569708
      ],
      [
        "boson",
        -11.122733005846348
      ],
      [
        "nuclei",
        -11.12286460507569
      ],
      [
        "review",
        -11.123074377905924
      ],
      [
        "uniquely",
        -11.123244169558564
      ],
      [
        "quote",
        -11.123841801288831
      ],
      [
        "pseudo",
        -11.123994363631855
      ],
      [
        "variations",
        -11.124321534893696
      ],
      [
        "concatenation",
        -11.124824270672423
      ],
      [
        "_idx",
        -11.125105061180333
      ],
      [
        "minute",
        -11.126500165438214
      ],
      [
        "xmath148",
        -11.126703977153102
      ],
      [
        "xmath149",
        -11.12708322698944
      ],
      [
        "running",
        -11.127282342636688
      ],
      [
        "achievable",
        -11.12807854333463
      ],
      [
        "_to_",
        -11.128877665399981
      ],
      [
        "xmath150",
        -11.129256677853204
      ],
      [
        "A_i",
        -11.129502611655761
      ],
      [
        "+=[",
        -11.129852145910169
      ],
      [
        "conjugate",
        -11.130161310635145
      ],
      [
        "detect",
        -11.130516183686852
      ],
      [
        "CA",
        -11.130586382572847
      ],
      [
        "240",
        -11.130846266096887
      ],
      [
        "sites",
        -11.131555125017918
      ],
      [
        "liquid",
        -11.1333793447736
      ],
      [
        "electronic",
        -11.133889307952247
      ],
      [
        "BE",
        -11.133910216146527
      ],
      [
        "university",
        -11.134650161105212
      ],
      [
        "Move",
        -11.135515618582417
      ],
      [
        "cosmic",
        -11.135598382409308
      ],
      [
        "imagine",
        -11.13563454542318
      ],
      [
        "hypothesis",
        -11.135778736818084
      ],
      [
        "800",
        -11.136340201035193
      ],
      [
        "L_i",
        -11.138221115365477
      ],
      [
        "sensitive",
        -11.13837730482523
      ],
      [
        "requirements",
        -11.139405729210177
      ],
      [
        "balls",
        -11.140317209198777
      ],
      [
        "Put",
        -11.141674133909824
      ],
      [
        "alternatively",
        -11.145368307714715
      ],
      [
        "intrinsic",
        -11.145574101382572
      ],
      [
        "neither",
        -11.146241253470833
      ],
      [
        "member",
        -11.146325456190985
      ],
      [
        "stdio",
        -11.148057534740465
      ],
      [
        "minutes",
        -11.148181524848582
      ],
      [
        "automatically",
        -11.14831089734593
      ],
      [
        "plotted",
        -11.148858412653642
      ],
      [
        "polygons",
        -11.148890900459595
      ],
      [
        "Memory",
        -11.150595828099037
      ],
      [
        "affected",
        -11.152787129766335
      ],
      [
        "grouping",
        -11.153352821825111
      ],
      [
        "address",
        -11.15338946948696
      ],
      [
        "c_j",
        -11.153485012152835
      ],
      [
        "rightmost",
        -11.154040645530852
      ],
      [
        "unclear",
        -11.154870067910386
      ],
      [
        "chord",
        -11.154963894385375
      ],
      [
        "nucleon",
        -11.155395927006479
      ],
      [
        "removal",
        -11.155747923368775
      ],
      [
        "reaction",
        -11.156988520175377
      ],
      [
        "essential",
        -11.157511255901754
      ],
      [
        "broad",
        -11.157805244155323
      ],
      [
        "potentially",
        -11.158394501884793
      ],
      [
        "developed",
        -11.158855015134728
      ],
      [
        "mixed",
        -11.158915142548995
      ],
      [
        "²).",
        -11.158957776722499
      ],
      [
        "sync",
        -11.159533010258052
      ],
      [
        "subgraph",
        -11.160489716362342
      ],
      [
        "helps",
        -11.16072443226631
      ],
      [
        "absence",
        -11.161589303058213
      ],
      [
        "DC",
        -11.162459587251888
      ],
      [
        "计算",
        -11.163090195018373
      ],
      [
        "trick",
        -11.163653144328388
      ],
      [
        "Print",
        -11.164158256354703
      ],
      [
        "izing",
        -11.164198596508145
      ],
      [
        "behaviour",
        -11.164743839804085
      ],
      [
        "press",
        -11.165400574067872
      ],
      [
        "maxima",
        -11.165532318238512
      ],
      [
        "diagrams",
        -11.165818207073716
      ],
      [
        "gate",
        -11.167911968709465
      ],
      [
        "discrepancy",
        -11.16809894243665
      ],
      [
        "bigg",
        -11.168327761246129
      ],
      [
        "simulate",
        -11.169274406165826
      ],
      [
        "explained",
        -11.169487051290783
      ],
      [
        "fourier",
        -11.17013375984098
      ],
      [
        "Hello",
        -11.170320603547214
      ],
      [
        "spacing",
        -11.170855852435977
      ],
      [
        "charged",
        -11.171233817768611
      ],
      [
        "independently",
        -11.17169375184076
      ],
      [
        "precedence",
        -11.172020786458134
      ],
      [
        "date",
        -11.17208026073038
      ],
      [
        "anywhere",
        -11.172194639526806
      ],
      [
        "maximized",
        -11.172217586202478
      ],
      [
        "derivatives",
        -11.17231236902461
      ],
      [
        "testing",
        -11.173597702350207
      ],
      [
        "Max",
        -11.173737505739785
      ],
      [
        "envelope",
        -11.175028770009959
      ],
      [
        "losing",
        -11.175035673529843
      ],
      [
        "members",
        -11.175305123906549
      ],
      [
        "127",
        -11.176130240968007
      ],
      [
        "suggested",
        -11.17639610537172
      ],
      [
        "integrand",
        -11.176643750697796
      ],
      [
        "parsed",
        -11.177301989007354
      ],
      [
        "signs",
        -11.178051854102964
      ],
      [
        "node2",
        -11.178128227555716
      ],
      [
        "eigenvalue",
        -11.178255673060667
      ],
      [
        "accumulated",
        -11.178259044202193
      ],
      [
        "xmath153",
        -11.17870233998666
      ],
      [
        "carried",
        -11.178787799632206
      ],
      [
        "updates",
        -11.179044258153347
      ],
      [
        "cavity",
        -11.180972220853352
      ],
      [
        "meets",
        -11.181461963508994
      ],
      [
        "relaxation",
        -11.182211687538139
      ],
      [
        "denominators",
        -11.182701697923745
      ],
      [
        "ignore",
        -11.183614901527832
      ],
      [
        "enclosed",
        -11.184022330155845
      ],
      [
        "'(',",
        -11.1840690720661
      ],
      [
        "xmath154",
        -11.184409311668654
      ],
      [
        "minima",
        -11.185098299685057
      ],
      [
        "fold",
        -11.185377290168452
      ],
      [
        "$$$)",
        -11.186290755498145
      ],
      [
        "prob",
        -11.186691466738582
      ],
      [
        "stationary",
        -11.186924783116233
      ],
      [
        "simplest",
        -11.187443664529122
      ],
      [
        "statistics",
        -11.187724933261093
      ],
      [
        "channels",
        -11.188412374329868
      ],
      [
        "effectively",
        -11.189283229137576
      ],
      [
        "dipole",
        -11.190011883512636
      ],
      [
        "universal",
        -11.190049133117894
      ],
      [
        "bands",
        -11.190065505400618
      ],
      [
        "isolated",
        -11.190615110693917
      ],
      [
        "Need",
        -11.190773063360433
      ],
      [
        "_set",
        -11.190826293289039
      ],
      [
        "amplitudes",
        -11.190987104164167
      ],
      [
        "xmath160",
        -11.191302578086354
      ],
      [
        "xmath156",
        -11.192078352646455
      ],
      [
        "”",
        -11.194157222842259
      ],
      [
        "authors",
        -11.19519145546292
      ],
      [
        "xmath155",
        -11.19520790146761
      ],
      [
        "xmath152",
        -11.195845309484291
      ],
      [
        "中",
        -11.19660426672872
      ],
      [
        "}(\\",
        -11.196834312270177
      ],
      [
        "Split",
        -11.196970499214366
      ],
      [
        "subtracted",
        -11.197561923641182
      ],
      [
        "showed",
        -11.198463001732527
      ],
      [
        "telescope",
        -11.199277040571337
      ],
      [
        "residual",
        -11.19995180043499
      ],
      [
        "xmath157",
        -11.20064873610706
      ],
      [
        "tends",
        -11.20082357367608
      ],
      [
        "xmath151",
        -11.201193718080951
      ],
      [
        "neutral",
        -11.202060434626134
      ],
      [
        "Combine",
        -11.202490326983934
      ],
      [
        "reading",
        -11.202938769303731
      ],
      [
        "propagation",
        -11.202962104087982
      ],
      [
        "furthest",
        -11.204501450914442
      ],
      [
        "reads",
        -11.205044891915731
      ],
      [
        "xmath158",
        -11.205461490820934
      ],
      [
        "competition",
        -11.206203013344274
      ],
      [
        "oscillations",
        -11.206901135980738
      ],
      [
        "'>'",
        -11.207483553501635
      ],
      [
        "underlying",
        -11.207516556354232
      ],
      [
        "dwarf",
        -11.208164905268989
      ],
      [
        "integrated",
        -11.20954171011879
      ],
[...]
